{
  "version": "1.0",
  "truncation": null,
  "padding": null,
  "added_tokens": [
    {
      "id": 0,
      "content": "<pad>",
      "single_word": false,
      "lstrip": false,
      "rstrip": false,
      "normalized": false,
      "special": true
    },
    {
      "id": 1,
      "content": "<unk>",
      "single_word": false,
      "lstrip": false,
      "rstrip": false,
      "normalized": false,
      "special": true
    },
    {
      "id": 2,
      "content": "<bos>",
      "single_word": false,
      "lstrip": false,
      "rstrip": false,
      "normalized": false,
      "special": true
    },
    {
      "id": 3,
      "content": "<eos>",
      "single_word": false,
      "lstrip": false,
      "rstrip": false,
      "normalized": false,
      "special": true
    }
  ],
  "normalizer": {
    "type": "Sequence",
    "normalizers": [
      {
        "type": "NFD"
      },
      {
        "type": "StripAccents"
      }
    ]
  },
  "pre_tokenizer": {
    "type": "Whitespace"
  },
  "post_processor": null,
  "decoder": null,
  "model": {
    "type": "BPE",
    "dropout": null,
    "unk_token": "<unk>",
    "continuing_subword_prefix": null,
    "end_of_word_suffix": null,
    "fuse_unk": false,
    "byte_fallback": false,
    "ignore_merges": false,
    "vocab": {
      "<pad>": 0,
      "<unk>": 1,
      "<bos>": 2,
      "<eos>": 3,
      "!": 4,
      "&": 5,
      "'": 6,
      "(": 7,
      ")": 8,
      "*": 9,
      ",": 10,
      "-": 11,
      ".": 12,
      "0": 13,
      "1": 14,
      "2": 15,
      "3": 16,
      "4": 17,
      "5": 18,
      "6": 19,
      "7": 20,
      "8": 21,
      "9": 22,
      ":": 23,
      ";": 24,
      "?": 25,
      "A": 26,
      "B": 27,
      "C": 28,
      "D": 29,
      "E": 30,
      "F": 31,
      "G": 32,
      "H": 33,
      "I": 34,
      "J": 35,
      "K": 36,
      "L": 37,
      "M": 38,
      "N": 39,
      "O": 40,
      "P": 41,
      "Q": 42,
      "R": 43,
      "S": 44,
      "T": 45,
      "U": 46,
      "V": 47,
      "W": 48,
      "X": 49,
      "Y": 50,
      "Z": 51,
      "[": 52,
      "]": 53,
      "_": 54,
      "a": 55,
      "b": 56,
      "c": 57,
      "d": 58,
      "e": 59,
      "f": 60,
      "g": 61,
      "h": 62,
      "i": 63,
      "j": 64,
      "k": 65,
      "l": 66,
      "m": 67,
      "n": 68,
      "o": 69,
      "p": 70,
      "q": 71,
      "r": 72,
      "s": 73,
      "t": 74,
      "u": 75,
      "v": 76,
      "w": 77,
      "x": 78,
      "y": 79,
      "z": 80,
      "Æ": 81,
      "æ": 82,
      "œ": 83,
      "—": 84,
      "‘": 85,
      "’": 86,
      "“": 87,
      "”": 88,
      "…": 89,
      "th": 90,
      "er": 91,
      "ou": 92,
      "in": 93,
      "an": 94,
      "the": 95,
      "or": 96,
      "is": 97,
      "en": 98,
      "ar": 99,
      "at": 100,
      "on": 101,
      "ll": 102,
      "es": 103,
      "and": 104,
      "to": 105,
      "he": 106,
      "st": 107,
      "me": 108,
      "you": 109,
      "no": 110,
      "of": 111,
      "re": 112,
      "ha": 113,
      "se": 114,
      "it": 115,
      "ve": 116,
      "ing": 117,
      "le": 118,
      "wi": 119,
      "be": 120,
      "ch": 121,
      "ce": 122,
      "as": 123,
      "ow": 124,
      "my": 125,
      "ed": 126,
      "hi": 127,
      "for": 128,
      "nd": 129,
      "ld": 130,
      "ay": 131,
      "ere": 132,
      "ir": 133,
      "ut": 134,
      "Th": 135,
      "om": 136,
      "not": 137,
      "gh": 138,
      "li": 139,
      "we": 140,
      "de": 141,
      "that": 142,
      "ke": 143,
      "oo": 144,
      "And": 145,
      "with": 146,
      "our": 147,
      "ter": 148,
      "al": 149,
      "us": 150,
      "ri": 151,
      "wh": 152,
      "ad": 153,
      "so": 154,
      "ent": 155,
      "Wh": 156,
      "et": 157,
      "his": 158,
      "your": 159,
      "thou": 160,
      "all": 161,
      "ra": 162,
      "ther": 163,
      "un": 164,
      "ro": 165,
      "do": 166,
      "ght": 167,
      "ur": 168,
      "him": 169,
      "ly": 170,
      "this": 171,
      "have": 172,
      "ver": 173,
      "lo": 174,
      "The": 175,
      "am": 176,
      "ti": 177,
      "ess": 178,
      "ord": 179,
      "ould": 180,
      "ain": 181,
      "fe": 182,
      "will": 183,
      "id": 184,
      "are": 185,
      "her": 186,
      "est": 187,
      "EN": 188,
      "ck": 189,
      "pe": 190,
      "ma": 191,
      "now": 192,
      "ood": 193,
      "sha": 194,
      "ome": 195,
      "ne": 196,
      "AN": 197,
      "ge": 198,
      "thy": 199,
      "fa": 200,
      "one": 201,
      "su": 202,
      "end": 203,
      "US": 204,
      "ER": 205,
      "AR": 206,
      "but": 207,
      "IN": 208,
      "man": 209,
      "To": 210,
      "la": 211,
      "art": 212,
      "ard": 213,
      "pr": 214,
      "thee": 215,
      "ru": 216,
      "sh": 217,
      "by": 218,
      "shall": 219,
      "ES": 220,
      "ill": 221,
      "mor": 222,
      "That": 223,
      "si": 224,
      "con": 225,
      "up": 226,
      "go": 227,
      "po": 228,
      "ON": 229,
      "mo": 230,
      "ant": 231,
      "rom": 232,
      "com": 233,
      "ine": 234,
      "But": 235,
      "En": 236,
      "sel": 237,
      "ight": 238,
      "mu": 239,
      "ak": 240,
      "te": 241,
      "ST": 242,
      "qu": 243,
      "il": 244,
      "ous": 245,
      "ind": 246,
      "ion": 247,
      "What": 248,
      "own": 249,
      "she": 250,
      "bo": 251,
      "if": 252,
      "ble": 253,
      "OR": 254,
      "lord": 255,
      "ers": 256,
      "good": 257,
      "love": 258,
      "ct": 259,
      "hich": 260,
      "out": 261,
      "He": 262,
      "sa": 263,
      "ho": 264,
      "ven": 265,
      "ong": 266,
      "wor": 267,
      "was": 268,
      "from": 269,
      "ry": 270,
      "what": 271,
      "ast": 272,
      "For": 273,
      "bl": 274,
      "more": 275,
      "know": 276,
      "well": 277,
      "would": 278,
      "AL": 279,
      "them": 280,
      "Ex": 281,
      "Enter": 282,
      "can": 283,
      "OL": 284,
      "ive": 285,
      "ap": 286,
      "ate": 287,
      "let": 288,
      "their": 289,
      "come": 290,
      "self": 291,
      "see": 292,
      "ie": 293,
      "ence": 294,
      "ag": 295,
      "they": 296,
      "ep": 297,
      "there": 298,
      "ul": 299,
      "ath": 300,
      "like": 301,
      "than": 302,
      "ta": 303,
      "_Ex": 304,
      "say": 305,
      "sir": 306,
      "ink": 307,
      "then": 308,
      "fore": 309,
      "LE": 310,
      "IO": 311,
      "ure": 312,
      "TH": 313,
      "per": 314,
      "here": 315,
      "ves": 316,
      "My": 317,
      "You": 318,
      "ish": 319,
      "No": 320,
      "ith": 321,
      "If": 322,
      "ave": 323,
      "We": 324,
      "ance": 325,
      "way": 326,
      "tru": 327,
      "thing": 328,
      "hath": 329,
      "ound": 330,
      "EL": 331,
      "ING": 332,
      "ook": 333,
      "pro": 334,
      "too": 335,
      "au": 336,
      "spe": 337,
      "ue": 338,
      "CH": 339,
      "reat": 340,
      "Be": 341,
      "ple": 342,
      "should": 343,
      "did": 344,
      "As": 345,
      "may": 346,
      "RO": 347,
      "were": 348,
      "dis": 349,
      "um": 350,
      "ars": 351,
      "make": 352,
      "sp": 353,
      "row": 354,
      "IA": 355,
      "co": 356,
      "some": 357,
      "upon": 358,
      "which": 359,
      "ic": 360,
      "Go": 361,
      "must": 362,
      "men": 363,
      "KING": 364,
      "very": 365,
      "IR": 366,
      "unt": 367,
      "ity": 368,
      "In": 369,
      "had": 370,
      "ey": 371,
      "oun": 372,
      "vi": 373,
      "LO": 374,
      "di": 375,
      "IUS": 376,
      "other": 377,
      "word": 378,
      "ex": 379,
      "hand": 380,
      "heart": 381,
      "hon": 382,
      "such": 383,
      "day": 384,
      "think": 385,
      "off": 386,
      "ose": 387,
      "Thou": 388,
      "el": 389,
      "ame": 390,
      "tion": 391,
      "This": 392,
      "when": 393,
      "age": 394,
      "im": 395,
      "time": 396,
      "yet": 397,
      "again": 398,
      "How": 399,
      "pl": 400,
      "ans": 401,
      "ci": 402,
      "So": 403,
      "King": 404,
      "II": 405,
      "ene": 406,
      "af": 407,
      "swe": 408,
      "ise": 409,
      "llow": 410,
      "Why": 411,
      "With": 412,
      "ac": 413,
      "most": 414,
      "ang": 415,
      "ness": 416,
      "speak": 417,
      "fo": 418,
      "bre": 419,
      "fri": 420,
      "urn": 421,
      "tr": 422,
      "An": 423,
      "any": 424,
      "how": 425,
      "ab": 426,
      "Of": 427,
      "mine": 428,
      "wo": 429,
      "take": 430,
      "these": 431,
      "give": 432,
      "father": 433,
      "ANT": 434,
      "des": 435,
      "night": 436,
      "ady": 437,
      "king": 438,
      "ARD": 439,
      "AM": 440,
      "great": 441,
      "ear": 442,
      "ful": 443,
      "land": 444,
      "fair": 445,
      "mar": 446,
      "br": 447,
      "where": 448,
      "hea": 449,
      "gra": 450,
      "IC": 451,
      "eunt": 452,
      "ase": 453,
      "It": 454,
      "tell": 455,
      "friend": 456,
      "part": 457,
      "ber": 458,
      "ince": 459,
      "ENE": 460,
      "ty": 461,
      "gent": 462,
      "There": 463,
      "ESS": 464,
      "ser": 465,
      "ort": 466,
      "IL": 467,
      "much": 468,
      "arm": 469,
      "gn": 470,
      "bro": 471,
      "str": 472,
      "Let": 473,
      "hear": 474,
      "ation": 475,
      "em": 476,
      "look": 477,
      "never": 478,
      "LA": 479,
      "Come": 480,
      "Is": 481,
      "ace": 482,
      "ree": 483,
      "_Exeunt": 484,
      "sc": 485,
      "AT": 486,
      "ies": 487,
      "_Exit": 488,
      "Which": 489,
      "mis": 490,
      "blood": 491,
      "und": 492,
      "lt": 493,
      "ull": 494,
      "Do": 495,
      "ite": 496,
      "life": 497,
      "Where": 498,
      "red": 499,
      "ust": 500,
      "death": 501,
      "less": 502,
      "ment": 503,
      "ret": 504,
      "doth": 505,
      "UC": 506,
      "fl": 507,
      "mon": 508,
      "honour": 509,
      "SC": 510,
      "fi": 511,
      "tle": 512,
      "son": 513,
      "ET": 514,
      "wr": 515,
      "When": 516,
      "RI": 517,
      "ward": 518,
      "bet": 519,
      "gentle": 520,
      "By": 521,
      "ever": 522,
      "oul": 523,
      "Sir": 524,
      "coun": 525,
      "tain": 526,
      "Or": 527,
      "ster": 528,
      "lie": 529,
      "ces": 530,
      "mer": 531,
      "hast": 532,
      "foo": 533,
      "ond": 534,
      "old": 535,
      "ass": 536,
      "tis": 537,
      "ough": 538,
      "AC": 539,
      "pp": 540,
      "Lord": 541,
      "io": 542,
      "Now": 543,
      "sed": 544,
      "cour": 545,
      "ice": 546,
      "stand": 547,
      "God": 548,
      "call": 549,
      "orn": 550,
      "tend": 551,
      "ach": 552,
      "ts": 553,
      "fear": 554,
      "FF": 555,
      "SCENE": 556,
      "heaven": 557,
      "made": 558,
      "Sc": 559,
      "Who": 560,
      "Mar": 561,
      "who": 562,
      "sweet": 563,
      "SE": 564,
      "ouse": 565,
      "CA": 566,
      "true": 567,
      "new": 568,
      "eyes": 569,
      "che": 570,
      "PH": 571,
      "wom": 572,
      "mad": 573,
      "AND": 574,
      "hold": 575,
      "ving": 576,
      "head": 577,
      "gl": 578,
      "FIR": 579,
      "cannot": 580,
      "FIRST": 581,
      "pla": 582,
      "pri": 583,
      "nor": 584,
      "uke": 585,
      "ED": 586,
      "pt": 587,
      "Here": 588,
      "rown": 589,
      "ba": 590,
      "Then": 591,
      "world": 592,
      "vo": 593,
      "UR": 594,
      "pray": 595,
      "res": 596,
      "led": 597,
      "live": 598,
      "Scene": 599,
      "TI": 600,
      "away": 601,
      "thought": 602,
      "been": 603,
      "pres": 604,
      "done": 605,
      "Your": 606,
      "long": 607,
      "QU": 608,
      "bear": 609,
      "Tis": 610,
      "name": 611,
      "fort": 612,
      "DU": 613,
      "Ay": 614,
      "Fr": 615,
      "shi": 616,
      "tri": 617,
      "fir": 618,
      "bra": 619,
      "ds": 620,
      "gu": 621,
      "two": 622,
      "comes": 623,
      ".]": 624,
      "down": 625,
      "pre": 626,
      "She": 627,
      "ings": 628,
      "might": 629,
      "ore": 630,
      "ower": 631,
      "ake": 632,
      "light": 633,
      "able": 634,
      "tra": 635,
      "ss": 636,
      "before": 637,
      "EM": 638,
      "les": 639,
      "brother": 640,
      "war": 641,
      "put": 642,
      "jo": 643,
      "set": 644,
      "ghter": 645,
      "dy": 646,
      "They": 647,
      "ign": 648,
      "Duke": 649,
      "house": 650,
      "noble": 651,
      "leave": 652,
      "ps": 653,
      "ENT": 654,
      "deed": 655,
      "ton": 656,
      "atter": 657,
      "ted": 658,
      "ef": 659,
      "pur": 660,
      "ks": 661,
      "Pr": 662,
      "His": 663,
      "CON": 664,
      "gr": 665,
      "thus": 666,
      "lady": 667,
      "ORD": 668,
      "ten": 669,
      "could": 670,
      "ye": 671,
      "CE": 672,
      "fool": 673,
      "Ca": 674,
      "ange": 675,
      "Sha": 676,
      "use": 677,
      "poor": 678,
      "reas": 679,
      "dead": 680,
      "ild": 681,
      "tent": 682,
      "cha": 683,
      "side": 684,
      "show": 685,
      "cau": 686,
      "better": 687,
      "being": 688,
      "wit": 689,
      "Well": 690,
      "soul": 691,
      "wer": 692,
      "find": 693,
      "keep": 694,
      "ick": 695,
      "rest": 696,
      "right": 697,
      "KE": 698,
      "lit": 699,
      "ol": 700,
      "atch": 701,
      "ese": 702,
      "ft": 703,
      "ph": 704,
      "into": 705,
      "still": 706,
      "gi": 707,
      "op": 708,
      "STA": 709,
      "IS": 710,
      "dear": 711,
      "both": 712,
      "comp": 713,
      "ors": 714,
      "cur": 715,
      "Good": 716,
      "cl": 717,
      "under": 718,
      "beg": 719,
      "Nor": 720,
      "master": 721,
      "nothing": 722,
      "every": 723,
      "full": 724,
      "many": 725,
      "cy": 726,
      "Will": 727,
      "ction": 728,
      "OF": 729,
      "MAR": 730,
      "une": 731,
      "ng": 732,
      "aughter": 733,
      "whi": 734,
      "kind": 735,
      "gri": 736,
      "place": 737,
      "cause": 738,
      "BER": 739,
      "Ro": 740,
      "fall": 741,
      "wife": 742,
      "Rome": 743,
      "nat": 744,
      "par": 745,
      "uck": 746,
      "tress": 747,
      "ins": 748,
      "die": 749,
      "kes": 750,
      "pa": 751,
      "den": 752,
      "tal": 753,
      "tong": 754,
      "face": 755,
      "eye": 756,
      "till": 757,
      "myself": 758,
      "ours": 759,
      "Al": 760,
      "daughter": 761,
      "vant": 762,
      "RICH": 763,
      "Than": 764,
      "IAN": 765,
      "Nay": 766,
      "read": 767,
      "je": 768,
      "woman": 769,
      "reason": 770,
      "RU": 771,
      "Her": 772,
      "comm": 773,
      "ield": 774,
      "young": 775,
      "RICHARD": 776,
      "though": 777,
      "little": 778,
      "those": 779,
      "its": 780,
      "HAM": 781,
      "Not": 782,
      "words": 783,
      "follow": 784,
      "ud": 785,
      "SS": 786,
      "LET": 787,
      "SECON": 788,
      "first": 789,
      "SECOND": 790,
      "ire": 791,
      "eng": 792,
      "ought": 793,
      "INE": 794,
      "RY": 795,
      "best": 796,
      "ff": 797,
      "ison": 798,
      "EEN": 799,
      "BE": 800,
      "ius": 801,
      "after": 802,
      "raw": 803,
      "Shall": 804,
      "Jo": 805,
      "char": 806,
      "tem": 807,
      "der": 808,
      "wel": 809,
      "ither": 810,
      "vil": 811,
      "med": 812,
      "Re": 813,
      "kill": 814,
      "bid": 815,
      "ning": 816,
      "sent": 817,
      "gone": 818,
      "QUEEN": 819,
      "boy": 820,
      "Br": 821,
      "mind": 822,
      "mber": 823,
      "esar": 824,
      "friends": 825,
      "sle": 826,
      "ark": 827,
      "himself": 828,
      "STAFF": 829,
      "mother": 830,
      "MAN": 831,
      "thine": 832,
      "_A": 833,
      "UL": 834,
      "Yet": 835,
      "vir": 836,
      "bed": 837,
      "ench": 838,
      "FAL": 839,
      "FALSTAFF": 840,
      "WN": 841,
      "forth": 842,
      "against": 843,
      "play": 844,
      "Caesar": 845,
      ".—": 846,
      "Have": 847,
      "DUKE": 848,
      "ship": 849,
      "conf": 850,
      "At": 851,
      "sand": 852,
      "clo": 853,
      "uty": 854,
      "lack": 855,
      "grace": 856,
      "Thy": 857,
      "iness": 858,
      "LUC": 859,
      "none": 860,
      "IV": 861,
      "band": 862,
      "ech": 863,
      "sor": 864,
      "thr": 865,
      "ian": 866,
      "present": 867,
      "TER": 868,
      "hor": 869,
      "assi": 870,
      "TUS": 871,
      "tongue": 872,
      "All": 873,
      "RIN": 874,
      "AG": 875,
      "cle": 876,
      "stay": 877,
      "ctor": 878,
      "aster": 879,
      "spir": 880,
      "answer": 881,
      "ICK": 882,
      "ROS": 883,
      "sure": 884,
      "turn": 885,
      "esty": 886,
      "BA": 887,
      "hus": 888,
      "OTH": 889,
      "whose": 890,
      "please": 891,
      "bring": 892,
      "ID": 893,
      "ved": 894,
      "oud": 895,
      "fellow": 896,
      "lay": 897,
      "ms": 898,
      "run": 899,
      "hel": 900,
      "ANTON": 901,
      "iss": 902,
      "same": 903,
      "mean": 904,
      "Our": 905,
      "bus": 906,
      "once": 907,
      "vill": 908,
      "else": 909,
      "back": 910,
      "car": 911,
      "child": 912,
      "roy": 913,
      "high": 914,
      "law": 915,
      "Ar": 916,
      "RESS": 917,
      "far": 918,
      "peace": 919,
      "pet": 920,
      "said": 921,
      "OST": 922,
      "gar": 923,
      "get": 924,
      "over": 925,
      "France": 926,
      "another": 927,
      "need": 928,
      "St": 929,
      "ious": 930,
      "mes": 931,
      "ldi": 932,
      "pos": 933,
      "pra": 934,
      "ition": 935,
      "que": 936,
      "pleas": 937,
      "GO": 938,
      "Un": 939,
      "PRIN": 940,
      "sub": 941,
      "UN": 942,
      "igh": 943,
      "unto": 944,
      "wrong": 945,
      "pat": 946,
      "fal": 947,
      "hed": 948,
      "just": 949,
      "meet": 950,
      "crown": 951,
      "has": 952,
      "vice": 953,
      "faith": 954,
      "hope": 955,
      "enter": 956,
      "III": 957,
      "sm": 958,
      "lau": 959,
      "Anton": 960,
      "letter": 961,
      "kn": 962,
      "HEN": 963,
      "IST": 964,
      "LES": 965,
      "sto": 966,
      "HENRY": 967,
      "From": 968,
      "ister": 969,
      "heard": 970,
      "about": 971,
      "husband": 972,
      "gain": 973,
      "matter": 974,
      "last": 975,
      "count": 976,
      "ceive": 977,
      "Ri": 978,
      "Up": 979,
      "ste": 980,
      "hither": 981,
      "dou": 982,
      "maid": 983,
      "earth": 984,
      "CI": 985,
      "CLO": 986,
      ",—": 987,
      "even": 988,
      "ban": 989,
      "power": 990,
      "ried": 991,
      "joy": 992,
      "_Aside": 993,
      "wind": 994,
      "selves": 995,
      "Pro": 996,
      "ACT": 997,
      "reme": 998,
      "bea": 999,
      "arewell": 1000,
      "pose": 1001,
      "ost": 1002,
      "happ": 1003,
      "wear": 1004,
      "home": 1005,
      "sword": 1006,
      "three": 1007,
      "shame": 1008,
      "near": 1009,
      "vy": 1010,
      "court": 1011,
      "bu": 1012,
      "hour": 1013,
      "thousand": 1014,
      "came": 1015,
      "vis": 1016,
      "sleep": 1017,
      "indeed": 1018,
      "whom": 1019,
      "MON": 1020,
      "Se": 1021,
      "ouch": 1022,
      "false": 1023,
      "ring": 1024,
      "sen": 1025,
      "draw": 1026,
      "ons": 1027,
      "ury": 1028,
      "HAMLET": 1029,
      "virt": 1030,
      "On": 1031,
      "air": 1032,
      "Lu": 1033,
      "dost": 1034,
      "BO": 1035,
      "va": 1036,
      "int": 1037,
      "aint": 1038,
      "ROM": 1039,
      "Are": 1040,
      "hence": 1041,
      "ran": 1042,
      "gods": 1043,
      "nature": 1044,
      "cut": 1045,
      "cess": 1046,
      "truth": 1047,
      "anger": 1048,
      "cer": 1049,
      "lies": 1050,
      "sing": 1051,
      "within": 1052,
      "body": 1053,
      "RA": 1054,
      "gold": 1055,
      "therefore": 1056,
      "Upon": 1057,
      "Give": 1058,
      "state": 1059,
      "rep": 1060,
      "villain": 1061,
      "Rich": 1062,
      "makes": 1063,
      "cious": 1064,
      "thank": 1065,
      "stri": 1066,
      "fect": 1067,
      "lords": 1068,
      "break": 1069,
      "hn": 1070,
      "gen": 1071,
      "gre": 1072,
      "rant": 1073,
      "arms": 1074,
      "lf": 1075,
      "min": 1076,
      "oft": 1077,
      "vent": 1078,
      "ardon": 1079,
      "worth": 1080,
      "madam": 1081,
      "John": 1082,
      "sun": 1083,
      "hands": 1084,
      "wick": 1085,
      "Ed": 1086,
      "De": 1087,
      "Master": 1088,
      "Some": 1089,
      "Su": 1090,
      "cap": 1091,
      "things": 1092,
      "ates": 1093,
      "youth": 1094,
      "PER": 1095,
      "pi": 1096,
      "spo": 1097,
      "pect": 1098,
      "Eng": 1099,
      "xt": 1100,
      "fight": 1101,
      "ousin": 1102,
      "pati": 1103,
      "hum": 1104,
      "ESTER": 1105,
      "seen": 1106,
      "England": 1107,
      "ork": 1108,
      "tears": 1109,
      "Que": 1110,
      "SH": 1111,
      "fire": 1112,
      "help": 1113,
      "ery": 1114,
      "Ch": 1115,
      "Look": 1116,
      "RE": 1117,
      "cre": 1118,
      "sound": 1119,
      "want": 1120,
      "times": 1121,
      "news": 1122,
      "Queen": 1123,
      "OM": 1124,
      "hang": 1125,
      "ls": 1126,
      "ELLO": 1127,
      "GAR": 1128,
      "grief": 1129,
      "rem": 1130,
      "Po": 1131,
      "Would": 1132,
      "ows": 1133,
      "morrow": 1134,
      "LORD": 1135,
      "_To": 1136,
      "wish": 1137,
      "enough": 1138,
      "ob": 1139,
      "shalt": 1140,
      "BETH": 1141,
      "ken": 1142,
      "Le": 1143,
      "does": 1144,
      "gentleman": 1145,
      "while": 1146,
      "York": 1147,
      "tak": 1148,
      "without": 1149,
      "soldi": 1150,
      "strong": 1151,
      "bt": 1152,
      "kiss": 1153,
      "Gl": 1154,
      "dr": 1155,
      "pen": 1156,
      "swear": 1157,
      "CLOWN": 1158,
      "DO": 1159,
      "ween": 1160,
      "gether": 1161,
      "mistress": 1162,
      "weep": 1163,
      "got": 1164,
      "queen": 1165,
      "BEL": 1166,
      "Did": 1167,
      "Gra": 1168,
      "mi": 1169,
      "ask": 1170,
      "rather": 1171,
      "Therefore": 1172,
      "PRINCE": 1173,
      "bar": 1174,
      "du": 1175,
      "since": 1176,
      "sea": 1177,
      "prison": 1178,
      "Hath": 1179,
      "pal": 1180,
      "ist": 1181,
      "why": 1182,
      "faul": 1183,
      "honest": 1184,
      "bri": 1185,
      "breath": 1186,
      ".”": 1187,
      "care": 1188,
      "devil": 1189,
      "through": 1190,
      "room": 1191,
      "These": 1192,
      "Before": 1193,
      "TE": 1194,
      "cks": 1195,
      "appe": 1196,
      "MAC": 1197,
      "bes": 1198,
      "mus": 1199,
      "saw": 1200,
      "Even": 1201,
      "Hen": 1202,
      "TES": 1203,
      "ze": 1204,
      "prove": 1205,
      "ather": 1206,
      "ide": 1207,
      "lar": 1208,
      "sl": 1209,
      "went": 1210,
      "ject": 1211,
      "welcome": 1212,
      "Sh": 1213,
      "ner": 1214,
      "stru": 1215,
      "half": 1216,
      "Henry": 1217,
      "bit": 1218,
      "cousin": 1219,
      "fit": 1220,
      "horse": 1221,
      "together": 1222,
      "cester": 1223,
      "Li": 1224,
      "ats": 1225,
      "ready": 1226,
      "form": 1227,
      "sorrow": 1228,
      "pain": 1229,
      "AU": 1230,
      "BRU": 1231,
      "Con": 1232,
      "seem": 1233,
      "LEON": 1234,
      "BRUTUS": 1235,
      "May": 1236,
      "Prince": 1237,
      "OB": 1238,
      "OP": 1239,
      "ged": 1240,
      "lost": 1241,
      "strange": 1242,
      "command": 1243,
      "IM": 1244,
      "vers": 1245,
      "yourself": 1246,
      "beauty": 1247,
      "SIR": 1248,
      "grow": 1249,
      "ned": 1250,
      "fortune": 1251,
      "hard": 1252,
      "wa": 1253,
      "Lo": 1254,
      "only": 1255,
      "stra": 1256,
      "content": 1257,
      "spirit": 1258,
      "ory": 1259,
      "means": 1260,
      "force": 1261,
      "ERV": 1262,
      "ched": 1263,
      "Can": 1264,
      "jesty": 1265,
      "send": 1266,
      "sick": 1267,
      "ants": 1268,
      "ROSAL": 1269,
      "OTHELLO": 1270,
      "late": 1271,
      "wise": 1272,
      "Antony": 1273,
      "stre": 1274,
      "IOL": 1275,
      "SERV": 1276,
      "mur": 1277,
      "tow": 1278,
      "lieve": 1279,
      "swor": 1280,
      "IAGO": 1281,
      "cry": 1282,
      "dom": 1283,
      "fly": 1284,
      "foul": 1285,
      "ford": 1286,
      "prince": 1287,
      "Richard": 1288,
      "sin": 1289,
      "return": 1290,
      "MIST": 1291,
      "Pe": 1292,
      "ush": 1293,
      "thoughts": 1294,
      "MISTRESS": 1295,
      "cra": 1296,
      "pardon": 1297,
      "eral": 1298,
      "inter": 1299,
      "Whose": 1300,
      "Per": 1301,
      "dre": 1302,
      "ell": 1303,
      "ute": 1304,
      "sight": 1305,
      "cold": 1306,
      "cus": 1307,
      "free": 1308,
      "ren": 1309,
      "ting": 1310,
      "deli": 1311,
      "CASS": 1312,
      "left": 1313,
      "Grace": 1314,
      "DY": 1315,
      "found": 1316,
      "attend": 1317,
      "alth": 1318,
      "yours": 1319,
      "oney": 1320,
      "Glou": 1321,
      "pass": 1322,
      "Though": 1323,
      "Gloucester": 1324,
      "GENT": 1325,
      "War": 1326,
      "prom": 1327,
      "onder": 1328,
      "GENTLE": 1329,
      "ANTONY": 1330,
      "DEM": 1331,
      "cor": 1332,
      "field": 1333,
      "gs": 1334,
      "jud": 1335,
      "outh": 1336,
      "alone": 1337,
      "desire": 1338,
      "country": 1339,
      "GLO": 1340,
      "cell": 1341,
      "UCESTER": 1342,
      "GLOUCESTER": 1343,
      "Ma": 1344,
      "told": 1345,
      "deser": 1346,
      "born": 1347,
      "gue": 1348,
      "itself": 1349,
      "worthy": 1350,
      "wat": 1351,
      "says": 1352,
      "EPH": 1353,
      "dam": 1354,
      "wilt": 1355,
      "rich": 1356,
      "Till": 1357,
      "Was": 1358,
      "bat": 1359,
      "bles": 1360,
      "business": 1361,
      "More": 1362,
      "cons": 1363,
      "royal": 1364,
      "pity": 1365,
      "ary": 1366,
      "THER": 1367,
      "COR": 1368,
      "fer": 1369,
      "mb": 1370,
      "sad": 1371,
      "known": 1372,
      "PE": 1373,
      "each": 1374,
      "ides": 1375,
      "sil": 1376,
      "charge": 1377,
      "pers": 1378,
      "proud": 1379,
      "aff": 1380,
      "talk": 1381,
      "ople": 1382,
      "ceed": 1383,
      "gainst": 1384,
      "Warwick": 1385,
      "cla": 1386,
      "gave": 1387,
      "kne": 1388,
      "course": 1389,
      "Bo": 1390,
      "ished": 1391,
      "plain": 1392,
      "happy": 1393,
      "Com": 1394,
      "UM": 1395,
      "wall": 1396,
      "lead": 1397,
      "ANIO": 1398,
      "GENTLEMAN": 1399,
      "La": 1400,
      "bour": 1401,
      "eseech": 1402,
      "JUL": 1403,
      "ca": 1404,
      "cho": 1405,
      "press": 1406,
      "pleasure": 1407,
      "sister": 1408,
      "service": 1409,
      "Cassi": 1410,
      "ures": 1411,
      "venge": 1412,
      "ounds": 1413,
      "certain": 1414,
      "LAND": 1415,
      "YOR": 1416,
      "trust": 1417,
      "ross": 1418,
      "lose": 1419,
      "people": 1420,
      "Ha": 1421,
      "Mis": 1422,
      "Take": 1423,
      "ling": 1424,
      "oath": 1425,
      "ents": 1426,
      "common": 1427,
      "looks": 1428,
      "act": 1429,
      "vour": 1430,
      "itor": 1431,
      "haste": 1432,
      "Spe": 1433,
      "French": 1434,
      "bir": 1435,
      "hate": 1436,
      "anc": 1437,
      "bloody": 1438,
      "TR": 1439,
      "val": 1440,
      "FORD": 1441,
      "PAG": 1442,
      "Ser": 1443,
      "aw": 1444,
      "cri": 1445,
      "sal": 1446,
      "lear": 1447,
      "sum": 1448,
      "DER": 1449,
      "YR": 1450,
      "sit": 1451,
      "ub": 1452,
      "loves": 1453,
      "work": 1454,
      "seek": 1455,
      "thinks": 1456,
      "serve": 1457,
      "PAGE": 1458,
      "MEN": 1459,
      "PRO": 1460,
      "cal": 1461,
      "ig": 1462,
      "quick": 1463,
      "between": 1464,
      "Say": 1465,
      "VOL": 1466,
      "ORT": 1467,
      "Pray": 1468,
      "Like": 1469,
      "Fl": 1470,
      "Were": 1471,
      "uncle": 1472,
      "doubt": 1473,
      "DIO": 1474,
      "burn": 1475,
      "fur": 1476,
      "ones": 1477,
      "Edward": 1478,
      "Yes": 1479,
      "thyself": 1480,
      "rum": 1481,
      "days": 1482,
      "MA": 1483,
      "tune": 1484,
      "soon": 1485,
      "LADY": 1486,
      "purpose": 1487,
      "company": 1488,
      "TA": 1489,
      "ied": 1490,
      "ily": 1491,
      "col": 1492,
      "music": 1493,
      "ues": 1494,
      "Me": 1495,
      "suff": 1496,
      "Pal": 1497,
      "Speak": 1498,
      "One": 1499,
      "sur": 1500,
      "change": 1501,
      "ends": 1502,
      "comfort": 1503,
      "sake": 1504,
      "foot": 1505,
      "MESS": 1506,
      "dare": 1507,
      "danger": 1508,
      "lives": 1509,
      "deep": 1510,
      "ques": 1511,
      "CLE": 1512,
      "cent": 1513,
      "beseech": 1514,
      "ris": 1515,
      "cond": 1516,
      "ief": 1517,
      "grave": 1518,
      "ont": 1519,
      "utus": 1520,
      "IND": 1521,
      "knows": 1522,
      "bound": 1523,
      "tro": 1524,
      "oose": 1525,
      "TIMON": 1526,
      "Cap": 1527,
      "PET": 1528,
      "ia": 1529,
      "servant": 1530,
      "PAR": 1531,
      "ses": 1532,
      "given": 1533,
      "Most": 1534,
      "lan": 1535,
      "yield": 1536,
      "bell": 1537,
      "brought": 1538,
      "drink": 1539,
      "MACBETH": 1540,
      "murder": 1541,
      "dream": 1542,
      ",”": 1543,
      "Ano": 1544,
      "HEL": 1545,
      "low": 1546,
      "ised": 1547,
      "unes": 1548,
      "fet": 1549,
      "vere": 1550,
      "lia": 1551,
      "INA": 1552,
      "INIUS": 1553,
      "fol": 1554,
      "ATRA": 1555,
      "Brutus": 1556,
      "general": 1557,
      "OPATRA": 1558,
      "YORK": 1559,
      "CLEOPATRA": 1560,
      "DES": 1561,
      "GER": 1562,
      "others": 1563,
      "mark": 1564,
      "Mad": 1565,
      "SYR": 1566,
      "mouth": 1567,
      "USE": 1568,
      "vile": 1569,
      "ACUSE": 1570,
      "MARGAR": 1571,
      "sworn": 1572,
      "further": 1573,
      "Another": 1574,
      "SYRACUSE": 1575,
      "Farewell": 1576,
      "dow": 1577,
      "rew": 1578,
      "fection": 1579,
      "suit": 1580,
      "OLK": 1581,
      "ILIA": 1582,
      "years": 1583,
      "BAST": 1584,
      "Whi": 1585,
      "black": 1586,
      "lad": 1587,
      "bot": 1588,
      "holy": 1589,
      "gracious": 1590,
      "UNT": 1591,
      "ROSALIND": 1592,
      "Had": 1593,
      "ek": 1594,
      "Thus": 1595,
      "ELIA": 1596,
      "ANTI": 1597,
      "JA": 1598,
      "ears": 1599,
      "loss": 1600,
      "ICE": 1601,
      "warrant": 1602,
      "Alas": 1603,
      "MARGARET": 1604,
      "past": 1605,
      "chance": 1606,
      "esseng": 1607,
      "sue": 1608,
      "bold": 1609,
      "open": 1610,
      "praise": 1611,
      "virtue": 1612,
      "Mistress": 1613,
      "LY": 1614,
      "believe": 1615,
      "lic": 1616,
      "took": 1617,
      "CHIO": 1618,
      "women": 1619,
      "remember": 1620,
      "KA": 1621,
      "ZEN": 1622,
      "knight": 1623,
      "pay": 1624,
      "lips": 1625,
      "TIZEN": 1626,
      "brave": 1627,
      "CITIZEN": 1628,
      "IMO": 1629,
      "len": 1630,
      "marry": 1631,
      "ground": 1632,
      "Tell": 1633,
      "eat": 1634,
      "touch": 1635,
      "ENGER": 1636,
      "fast": 1637,
      "Marry": 1638,
      "MESSENGER": 1639,
      "WARD": 1640,
      "bor": 1641,
      "bury": 1642,
      "amp": 1643,
      "sign": 1644,
      "woe": 1645,
      "writ": 1646,
      "vereign": 1647,
      "folk": 1648,
      "wal": 1649,
      "ength": 1650,
      "patience": 1651,
      "SERVANT": 1652,
      "CO": 1653,
      "Lady": 1654,
      "gall": 1655,
      "money": 1656,
      "ras": 1657,
      "sk": 1658,
      "met": 1659,
      "fault": 1660,
      "JO": 1661,
      "pret": 1662,
      "def": 1663,
      "hot": 1664,
      "LEAR": 1665,
      "Room": 1666,
      "sla": 1667,
      "sovereign": 1668,
      "ets": 1669,
      "mercy": 1670,
      "AS": 1671,
      "WAR": 1672,
      "obe": 1673,
      "beat": 1674,
      "ANUS": 1675,
      "broke": 1676,
      "MER": 1677,
      "Page": 1678,
      "four": 1679,
      "hell": 1680,
      "requ": 1681,
      "prof": 1682,
      "goes": 1683,
      "ilt": 1684,
      "ices": 1685,
      "Luci": 1686,
      "Madam": 1687,
      "Make": 1688,
      "POL": 1689,
      "PAND": 1690,
      "Since": 1691,
      "WICK": 1692,
      "zen": 1693,
      "THIR": 1694,
      "THIRD": 1695,
      "DON": 1696,
      "ile": 1697,
      "plo": 1698,
      "arry": 1699,
      "iece": 1700,
      "imon": 1701,
      "heavy": 1702,
      "Attend": 1703,
      "report": 1704,
      "WARWICK": 1705,
      "HER": 1706,
      "cord": 1707,
      "ket": 1708,
      "cover": 1709,
      "ments": 1710,
      "Tro": 1711,
      "tomorrow": 1712,
      "oward": 1713,
      "Engl": 1714,
      "ELL": 1715,
      "tender": 1716,
      "Ju": 1717,
      "short": 1718,
      "point": 1719,
      "counter": 1720,
      "tonight": 1721,
      "English": 1722,
      "Rom": 1723,
      "_S": 1724,
      "cast": 1725,
      "ga": 1726,
      "themselves": 1727,
      "water": 1728,
      "question": 1729,
      "Cor": 1730,
      "HOST": 1731,
      "dro": 1732,
      "woo": 1733,
      "OLUS": 1734,
      "hearts": 1735,
      "PHOLUS": 1736,
      "ANTIPHOLUS": 1737,
      "Away": 1738,
      "CL": 1739,
      "Par": 1740,
      "hind": 1741,
      "white": 1742,
      "umber": 1743,
      "enemy": 1744,
      "wenty": 1745,
      "judge": 1746,
      "tin": 1747,
      "rel": 1748,
      "weak": 1749,
      "sup": 1750,
      "bless": 1751,
      "sport": 1752,
      "person": 1753,
      "ated": 1754,
      "esh": 1755,
      "dem": 1756,
      "feel": 1757,
      "quo": 1758,
      "bos": 1759,
      "appear": 1760,
      "abo": 1761,
      "mpet": 1762,
      "thri": 1763,
      "god": 1764,
      "merry": 1765,
      "claim": 1766,
      "Out": 1767,
      "ions": 1768,
      "ALL": 1769,
      "HN": 1770,
      "Lond": 1771,
      "VAL": 1772,
      "farewell": 1773,
      "ger": 1774,
      "ges": 1775,
      "hair": 1776,
      "behold": 1777,
      "owers": 1778,
      "ount": 1779,
      "EMILIA": 1780,
      "chamber": 1781,
      "subject": 1782,
      "knave": 1783,
      "vali": 1784,
      "JOHN": 1785,
      "London": 1786,
      "gin": 1787,
      "knew": 1788,
      "speed": 1789,
      "speech": 1790,
      "See": 1791,
      "Ah": 1792,
      "base": 1793,
      "staff": 1794,
      "sec": 1795,
      "neither": 1796,
      "ARUS": 1797,
      "mortal": 1798,
      "ONA": 1799,
      "quar": 1800,
      "ils": 1801,
      "loved": 1802,
      "sons": 1803,
      "Pri": 1804,
      "atis": 1805,
      "oot": 1806,
      "via": 1807,
      "voice": 1808,
      "ANTONIO": 1809,
      "deliver": 1810,
      "Servant": 1811,
      "Bar": 1812,
      "ham": 1813,
      "Their": 1814,
      "next": 1815,
      "palace": 1816,
      "Ja": 1817,
      "Swe": 1818,
      "twenty": 1819,
      "wis": 1820,
      "wonder": 1821,
      "ender": 1822,
      "aste": 1823,
      "HELEN": 1824,
      "dest": 1825,
      "ny": 1826,
      "watch": 1827,
      "stu": 1828,
      "stant": 1829,
      "dog": 1830,
      "favour": 1831,
      "ISA": 1832,
      "CLA": 1833,
      "bow": 1834,
      "mir": 1835,
      "mock": 1836,
      "coming": 1837,
      "safe": 1838,
      "EDWARD": 1839,
      "Love": 1840,
      "straight": 1841,
      "bosom": 1842,
      "CLAU": 1843,
      "creat": 1844,
      "either": 1845,
      "ior": 1846,
      "tic": 1847,
      "qual": 1848,
      "gentlemen": 1849,
      "pair": 1850,
      "DI": 1851,
      "EO": 1852,
      "Must": 1853,
      "pit": 1854,
      "win": 1855,
      "ended": 1856,
      "Hector": 1857,
      "save": 1858,
      "ROMEO": 1859,
      "soldier": 1860,
      "DEMONA": 1861,
      "DESDEMONA": 1862,
      "athe": 1863,
      "dark": 1864,
      "uous": 1865,
      "vel": 1866,
      "ally": 1867,
      "ENIUS": 1868,
      "worse": 1869,
      "canst": 1870,
      "ways": 1871,
      "MENENIUS": 1872,
      "DROM": 1873,
      "SU": 1874,
      "Tit": 1875,
      "Ye": 1876,
      "ches": 1877,
      "entreat": 1878,
      "door": 1879,
      "hop": 1880,
      "scorn": 1881,
      "confess": 1882,
      "justice": 1883,
      "Should": 1884,
      "DROMIO": 1885,
      "Des": 1886,
      "lam": 1887,
      "ron": 1888,
      "wret": 1889,
      "ooth": 1890,
      "offer": 1891,
      "OWN": 1892,
      "dden": 1893,
      "toward": 1894,
      "Within": 1895,
      "town": 1896,
      "essenger": 1897,
      "CLAUDIO": 1898,
      "cu": 1899,
      "city": 1900,
      "fra": 1901,
      "stoo": 1902,
      "ourish": 1903,
      "valiant": 1904,
      "Sweet": 1905,
      "!—": 1906,
      "DICK": 1907,
      "FRI": 1908,
      "cas": 1909,
      "port": 1910,
      "ool": 1911,
      "rage": 1912,
      "aught": 1913,
      "something": 1914,
      "guard": 1915,
      "BEROWN": 1916,
      "IDA": 1917,
      "suffer": 1918,
      "BEROWNE": 1919,
      "SI": 1920,
      "duty": 1921,
      "ew": 1922,
      "mit": 1923,
      "sion": 1924,
      "glad": 1925,
      "RUCHIO": 1926,
      "PETRUCHIO": 1927,
      "moon": 1928,
      "OLIV": 1929,
      "dies": 1930,
      "traitor": 1931,
      "_Aside_": 1932,
      "Mo": 1933,
      "cred": 1934,
      "hur": 1935,
      "note": 1936,
      "els": 1937,
      "pluck": 1938,
      "action": 1939,
      "Such": 1940,
      "Fal": 1941,
      "PED": 1942,
      "coward": 1943,
      "ped": 1944,
      "lame": 1945,
      "rows": 1946,
      "CRESS": 1947,
      "din": 1948,
      "withal": 1949,
      "lock": 1950,
      "prin": 1951,
      "married": 1952,
      "ENTINE": 1953,
      "Peace": 1954,
      "VALENTINE": 1955,
      "CRESSIDA": 1956,
      "cuse": 1957,
      "hours": 1958,
      "stands": 1959,
      "needs": 1960,
      "BELLA": 1961,
      "Gent": 1962,
      "TOB": 1963,
      "Timon": 1964,
      "bad": 1965,
      "ding": 1966,
      "harm": 1967,
      "lust": 1968,
      "por": 1969,
      "passi": 1970,
      "qui": 1971,
      "pale": 1972,
      "PANDARUS": 1973,
      "TOBY": 1974,
      "Athen": 1975,
      "TOR": 1976,
      "bly": 1977,
      "book": 1978,
      "gard": 1979,
      "today": 1980,
      "lion": 1981,
      "counsel": 1982,
      "SHAL": 1983,
      "VOLIO": 1984,
      "NOR": 1985,
      "dge": 1986,
      "spr": 1987,
      "sever": 1988,
      "riage": 1989,
      "rah": 1990,
      "flesh": 1991,
      "Romeo": 1992,
      "presently": 1993,
      "spoke": 1994,
      "IOLANUS": 1995,
      "CORIOLANUS": 1996,
      "!”": 1997,
      "CAL": 1998,
      "IZ": 1999,
      "aves": 2000,
      "hood": 2001,
      "tit": 2002,
      "fell": 2003,
      "didst": 2004,
      "Stand": 2005,
      "Against": 2006,
      "almost": 2007,
      "morning": 2008,
      "flatter": 2009,
      "TEUS": 2010,
      "PROTEUS": 2011,
      "Tru": 2012,
      "dish": 2013,
      "har": 2014,
      "phe": 2015,
      "whe": 2016,
      "arl": 2017,
      "host": 2018,
      "grant": 2019,
      "stir": 2020,
      "rey": 2021,
      "revenge": 2022,
      "ardin": 2023,
      "trumpet": 2024,
      "CAP": 2025,
      "tempt": 2026,
      "HELENA": 2027,
      "eth": 2028,
      "ities": 2029,
      "become": 2030,
      "feit": 2031,
      "move": 2032,
      "died": 2033,
      "scar": 2034,
      "COUNT": 2035,
      "BUC": 2036,
      "dar": 2037,
      "gro": 2038,
      "ima": 2039,
      "KINGHAM": 2040,
      "strength": 2041,
      "respect": 2042,
      "gives": 2043,
      "Gentle": 2044,
      "BUCKINGHAM": 2045,
      "sigh": 2046,
      "umph": 2047,
      "breast": 2048,
      "liege": 2049,
      "soldiers": 2050,
      "GU": 2051,
      "Hast": 2052,
      "eds": 2053,
      "already": 2054,
      "majesty": 2055,
      "ESAR": 2056,
      "OLLES": 2057,
      "CAESAR": 2058,
      "LUCIUS": 2059,
      "PAROLLES": 2060,
      "BAN": 2061,
      "Cast": 2062,
      "pher": 2063,
      "wed": 2064,
      "wild": 2065,
      "dol": 2066,
      "trou": 2067,
      "join": 2068,
      "Cassio": 2069,
      "walk": 2070,
      "Dis": 2071,
      "GR": 2072,
      "test": 2073,
      "chief": 2074,
      "hide": 2075,
      "lif": 2076,
      "feast": 2077,
      "ESUS": 2078,
      "LOW": 2079,
      "excell": 2080,
      "FFOLK": 2081,
      "EPHESUS": 2082,
      "battle": 2083,
      "SUFFOLK": 2084,
      "SHALLOW": 2085,
      "PAL": 2086,
      "bast": 2087,
      "ot": 2088,
      "wars": 2089,
      "lly": 2090,
      "heir": 2091,
      "often": 2092,
      "having": 2093,
      "cept": 2094,
      "div": 2095,
      "AMON": 2096,
      "deny": 2097,
      "sense": 2098,
      "slain": 2099,
      "PALAMON": 2100,
      "BUR": 2101,
      "Clau": 2102,
      "Pom": 2103,
      "UT": 2104,
      "bond": 2105,
      "eas": 2106,
      "wound": 2107,
      "beast": 2108,
      "Wel": 2109,
      "firm": 2110,
      "CASSIUS": 2111,
      "Claudi": 2112,
      "Call": 2113,
      "rever": 2114,
      "receive": 2115,
      "umb": 2116,
      "fully": 2117,
      "High": 2118,
      "jest": 2119,
      "tre": 2120,
      "office": 2121,
      "cience": 2122,
      "kings": 2123,
      "heavens": 2124,
      "TITUS": 2125,
      "grie": 2126,
      "Tal": 2127,
      "bur": 2128,
      "tor": 2129,
      "twi": 2130,
      "ines": 2131,
      "suc": 2132,
      "dire": 2133,
      "speaks": 2134,
      "slave": 2135,
      "Attendants": 2136,
      "Yea": 2137,
      "BENE": 2138,
      "CUS": 2139,
      "FL": 2140,
      "PORT": 2141,
      "mn": 2142,
      "rough": 2143,
      "tol": 2144,
      "stain": 2145,
      "ash": 2146,
      "living": 2147,
      "sudden": 2148,
      "poss": 2149,
      "Being": 2150,
      "remain": 2151,
      "PEDRO": 2152,
      "BENEDICK": 2153,
      "PORTIA": 2154,
      "TRO": 2155,
      "dread": 2156,
      "fill": 2157,
      "loving": 2158,
      "order": 2159,
      "ENCE": 2160,
      "appro": 2161,
      "kingdom": 2162,
      "ILUS": 2163,
      "Lords": 2164,
      "prithee": 2165,
      "begin": 2166,
      "patient": 2167,
      "Majesty": 2168,
      "KATHER": 2169,
      "above": 2170,
      "TROILUS": 2171,
      "AD": 2172,
      "SIC": 2173,
      "na": 2174,
      "thir": 2175,
      "inf": 2176,
      "ires": 2177,
      "rain": 2178,
      "til": 2179,
      "ARCI": 2180,
      "teach": 2181,
      "resh": 2182,
      "ARCITE": 2183,
      "HOR": 2184,
      "soft": 2185,
      "llo": 2186,
      "sible": 2187,
      "thanks": 2188,
      "Doth": 2189,
      "strike": 2190,
      "passion": 2191,
      "ardinal": 2192,
      "Pl": 2193,
      "fat": 2194,
      "fing": 2195,
      "lov": 2196,
      "tius": 2197,
      "ORLAND": 2198,
      "whole": 2199,
      "brace": 2200,
      "children": 2201,
      "Prote": 2202,
      "pretty": 2203,
      "Claudio": 2204,
      "SOL": 2205,
      "case": 2206,
      "ging": 2207,
      "ker": 2208,
      "wra": 2209,
      "wood": 2210,
      "instru": 2211,
      "ANG": 2212,
      "poison": 2213,
      "truly": 2214,
      "ATO": 2215,
      "honourable": 2216,
      "called": 2217,
      "ISABELLA": 2218,
      "BUS": 2219,
      "EUS": 2220,
      "IET": 2221,
      "MAL": 2222,
      "Never": 2223,
      "Qu": 2224,
      "dri": 2225,
      "eter": 2226,
      "pap": 2227,
      "orti": 2228,
      "seas": 2229,
      "liber": 2230,
      "labour": 2231,
      "Fortune": 2232,
      "pped": 2233,
      "laugh": 2234,
      "JULIET": 2235,
      "Lucius": 2236,
      "KENT": 2237,
      "ale": 2238,
      "fam": 2239,
      "bel": 2240,
      "hion": 2241,
      "marriage": 2242,
      "resol": 2243,
      "conscience": 2244,
      "Falstaff": 2245,
      "Ty": 2246,
      "ago": 2247,
      "eld": 2248,
      "fas": 2249,
      "pare": 2250,
      "tom": 2251,
      "held": 2252,
      "lip": 2253,
      "ads": 2254,
      "conce": 2255,
      "lordship": 2256,
      "cheer": 2257,
      "deeds": 2258,
      "spirits": 2259,
      "letters": 2260,
      "Fa": 2261,
      "aven": 2262,
      "fle": 2263,
      "lst": 2264,
      "swi": 2265,
      "ider": 2266,
      "ilus": 2267,
      "Helen": 2268,
      "seems": 2269,
      "heads": 2270,
      "vantage": 2271,
      "LEONTES": 2272,
      "Palace": 2273,
      "Castle": 2274,
      "Know": 2275,
      "PIST": 2276,
      "Ven": 2277,
      "uri": 2278,
      "throw": 2279,
      "sters": 2280,
      "add": 2281,
      "affection": 2282,
      "undred": 2283,
      "fortunes": 2284,
      "close": 2285,
      "PISTOL": 2286,
      "GON": 2287,
      "Harry": 2288,
      "Mac": 2289,
      "PA": 2290,
      "PEM": 2291,
      "bs": 2292,
      "cross": 2293,
      "ecut": 2294,
      "ier": 2295,
      "ug": 2296,
      "oured": 2297,
      "tale": 2298,
      "acqu": 2299,
      "mighty": 2300,
      "carry": 2301,
      "Suf": 2302,
      "ACH": 2303,
      "Clar": 2304,
      "VIOL": 2305,
      "main": 2306,
      "beard": 2307,
      "urse": 2308,
      "akes": 2309,
      "THES": 2310,
      "anything": 2311,
      "ICLES": 2312,
      "pride": 2313,
      "effect": 2314,
      "IANA": 2315,
      "double": 2316,
      "BOT": 2317,
      "PERICLES": 2318,
      "Roman": 2319,
      "cru": 2320,
      "five": 2321,
      "fresh": 2322,
      "hundred": 2323,
      "mies": 2324,
      "od": 2325,
      "trem": 2326,
      "vie": 2327,
      "ites": 2328,
      "ingham": 2329,
      "behind": 2330,
      "chur": 2331,
      "conqu": 2332,
      "post": 2333,
      "wouldst": 2334,
      "understand": 2335,
      "takes": 2336,
      "VIOLA": 2337,
      "FE": 2338,
      "Pis": 2339,
      "SEN": 2340,
      "vow": 2341,
      "ina": 2342,
      "als": 2343,
      "ANS": 2344,
      "offence": 2345,
      "parts": 2346,
      "ations": 2347,
      "LEONATO": 2348,
      "street": 2349,
      "secret": 2350,
      "ORLANDO": 2351,
      "THESEUS": 2352,
      "Buck": 2353,
      "Count": 2354,
      "GEN": 2355,
      "Sil": 2356,
      "YM": 2357,
      "bas": 2358,
      "mid": 2359,
      "treason": 2360,
      "used": 2361,
      "cher": 2362,
      "sim": 2363,
      "ument": 2364,
      "witness": 2365,
      "souls": 2366,
      "Troilus": 2367,
      "GE": 2368,
      "SPE": 2369,
      "Wi": 2370,
      "ax": 2371,
      "moun": 2372,
      "oc": 2373,
      "meas": 2374,
      "nock": 2375,
      "BOY": 2376,
      "ladies": 2377,
      "IMOGEN": 2378,
      "OLIVIA": 2379,
      "Suffolk": 2380,
      "Clarence": 2381,
      "Fri": 2382,
      "SP": 2383,
      "dain": 2384,
      "fic": 2385,
      "piece": 2386,
      "Pompe": 2387,
      "SICINIUS": 2388,
      "SPEED": 2389,
      "Cle": 2390,
      "Da": 2391,
      "Hold": 2392,
      "Troy": 2393,
      "gif": 2394,
      "satis": 2395,
      "won": 2396,
      "stance": 2397,
      "second": 2398,
      "bears": 2399,
      "ERN": 2400,
      "shar": 2401,
      "perceive": 2402,
      "execut": 2403,
      "enemies": 2404,
      "promise": 2405,
      "Paris": 2406,
      "Athens": 2407,
      "fashion": 2408,
      "BRO": 2409,
      "PROS": 2410,
      "Sign": 2411,
      "cti": 2412,
      "sw": 2413,
      "ancy": 2414,
      "arch": 2415,
      "along": 2416,
      "ung": 2417,
      "ANCE": 2418,
      "ELO": 2419,
      "proof": 2420,
      "CHAR": 2421,
      "longer": 2422,
      "PERO": 2423,
      "quiet": 2424,
      "ANGELO": 2425,
      "PROSPERO": 2426,
      "GH": 2427,
      "cen": 2428,
      "drown": 2429,
      "drun": 2430,
      "ught": 2431,
      "issue": 2432,
      "arum": 2433,
      "forward": 2434,
      "ARBUS": 2435,
      "cted": 2436,
      "shows": 2437,
      "buy": 2438,
      "Buckingham": 2439,
      "Pompey": 2440,
      ".’": 2441,
      "Ind": 2442,
      "hu": 2443,
      "pas": 2444,
      "round": 2445,
      "star": 2446,
      "nder": 2447,
      "ENOB": 2448,
      "gover": 2449,
      "worship": 2450,
      "proceed": 2451,
      "Because": 2452,
      "desp": 2453,
      "dolph": 2454,
      "excellent": 2455,
      "ENOBARBUS": 2456,
      "Am": 2457,
      "DE": 2458,
      "Fir": 2459,
      "Ham": 2460,
      "ined": 2461,
      "noise": 2462,
      "feed": 2463,
      "ONE": 2464,
      "blind": 2465,
      "ague": 2466,
      "peror": 2467,
      "Brit": 2468,
      "birth": 2469,
      "valour": 2470,
      "title": 2471,
      "cr": 2472,
      "eks": 2473,
      "fine": 2474,
      "ners": 2475,
      "health": 2476,
      "least": 2477,
      "choose": 2478,
      "consent": 2479,
      "going": 2480,
      "posed": 2481,
      "CASSIO": 2482,
      "DIER": 2483,
      "trouble": 2484,
      "SOLDIER": 2485,
      "view": 2486,
      "First": 2487,
      "CTOR": 2488,
      "Hark": 2489,
      "SIL": 2490,
      "dull": 2491,
      "ress": 2492,
      "twas": 2493,
      "kept": 2494,
      "alt": 2495,
      "sol": 2496,
      "contin": 2497,
      "worst": 2498,
      "Anti": 2499,
      "ATR": 2500,
      "ATIO": 2501,
      "curse": 2502,
      "LUCIO": 2503,
      "small": 2504,
      "quoth": 2505,
      "HORATIO": 2506,
      "Bet": 2507,
      "Cy": 2508,
      "Earl": 2509,
      "Ford": 2510,
      "Fair": 2511,
      "SA": 2512,
      "ease": 2513,
      "year": 2514,
      "ourselves": 2515,
      "rid": 2516,
      "presence": 2517,
      "Antonio": 2518,
      "Talbot": 2519,
      "Hamlet": 2520,
      "CELIA": 2521,
      "Di": 2522,
      "FO": 2523,
      "Gu": 2524,
      "Mine": 2525,
      "OT": 2526,
      "sper": 2527,
      "cei": 2528,
      "forget": 2529,
      "lius": 2530,
      "motion": 2531,
      "blow": 2532,
      "temper": 2533,
      "entertain": 2534,
      "learn": 2535,
      "Bardolph": 2536,
      "Highness": 2537,
      "Signior": 2538,
      "Kate": 2539,
      "gy": 2540,
      "horn": 2541,
      "ption": 2542,
      "delight": 2543,
      "ural": 2544,
      "herself": 2545,
      "manner": 2546,
      "march": 2547,
      "write": 2548,
      "Martius": 2549,
      "boys": 2550,
      "virtuous": 2551,
      "green": 2552,
      "captain": 2553,
      "JULIA": 2554,
      "dangerous": 2555,
      "Titus": 2556,
      "paper": 2557,
      "LEN": 2558,
      "Wor": 2559,
      "_They": 2560,
      "cure": 2561,
      "ened": 2562,
      "ato": 2563,
      "forgot": 2564,
      "wealth": 2565,
      "sole": 2566,
      "neigh": 2567,
      "angry": 2568,
      "fools": 2569,
      "foolish": 2570,
      "Rosal": 2571,
      "BEATR": 2572,
      "PRINC": 2573,
      "blessed": 2574,
      "BEATRICE": 2575,
      "Cardinal": 2576,
      "van": 2577,
      "vain": 2578,
      "esy": 2579,
      "Soldi": 2580,
      "Ange": 2581,
      "Mark": 2582,
      "Leon": 2583,
      "taken": 2584,
      "faults": 2585,
      "fetch": 2586,
      "Great": 2587,
      "MUR": 2588,
      "POM": 2589,
      "Saint": 2590,
      "dra": 2591,
      "match": 2592,
      "ual": 2593,
      "depart": 2594,
      "entine": 2595,
      "Hear": 2596,
      "fold": 2597,
      "BASS": 2598,
      "banish": 2599,
      "Chris": 2600,
      "DERER": 2601,
      "wisdom": 2602,
      "possess": 2603,
      "PRINCESS": 2604,
      "MURDERER": 2605,
      "ABETH": 2606,
      "Men": 2607,
      "Sal": 2608,
      "SAL": 2609,
      "camp": 2610,
      "gates": 2611,
      "twere": 2612,
      "orge": 2613,
      "among": 2614,
      "Heaven": 2615,
      "THE": 2616,
      "ELIZ": 2617,
      "serv": 2618,
      "ILL": 2619,
      "ledge": 2620,
      "phy": 2621,
      "BERTR": 2622,
      "position": 2623,
      "laughter": 2624,
      "brief": 2625,
      "quickly": 2626,
      "colour": 2627,
      "Faith": 2628,
      "ELIZABETH": 2629,
      "BERTRAM": 2630,
      "Messenger": 2631,
      "bright": 2632,
      "iled": 2633,
      "sch": 2634,
      "try": 2635,
      "eness": 2636,
      "beth": 2637,
      "ARMA": 2638,
      "ages": 2639,
      "Nothing": 2640,
      "glass": 2641,
      "brain": 2642,
      "jeal": 2643,
      "BASTARD": 2644,
      "hurt": 2645,
      "Angelo": 2646,
      "POMPE": 2647,
      "ARMADO": 2648,
      "APEM": 2649,
      "Hu": 2650,
      "HOT": 2651,
      "NUR": 2652,
      "Som": 2653,
      "ude": 2654,
      "wench": 2655,
      "yond": 2656,
      "stor": 2657,
      "shake": 2658,
      "rust": 2659,
      "illes": 2660,
      "ANTUS": 2661,
      "month": 2662,
      "EDGAR": 2663,
      "Jove": 2664,
      "possible": 2665,
      "golden": 2666,
      "humour": 2667,
      "troth": 2668,
      "quarrel": 2669,
      "COUNTESS": 2670,
      "cruel": 2671,
      "SPUR": 2672,
      "POMPEY": 2673,
      "APEMANTUS": 2674,
      "HOTSPUR": 2675,
      "NURSE": 2676,
      "Af": 2677,
      "BARD": 2678,
      "PO": 2679,
      "Under": 2680,
      "Val": 2681,
      "gir": 2682,
      "patch": 2683,
      "wast": 2684,
      "ature": 2685,
      "seal": 2686,
      "leep": 2687,
      "Think": 2688,
      "laid": 2689,
      "iles": 2690,
      "blush": 2691,
      "OLPH": 2692,
      "breed": 2693,
      "natural": 2694,
      "commend": 2695,
      "steal": 2696,
      "REY": 2697,
      "Somer": 2698,
      "BARDOLPH": 2699,
      "Tom": 2700,
      "ULET": 2701,
      "Wal": 2702,
      "ele": 2703,
      "inius": 2704,
      "anio": 2705,
      "ited": 2706,
      "ingly": 2707,
      "utter": 2708,
      "masters": 2709,
      "shape": 2710,
      "breathe": 2711,
      "SEBAST": 2712,
      "prayers": 2713,
      "bitter": 2714,
      "princes": 2715,
      "CAPULET": 2716,
      "SEBASTIAN": 2717,
      "Ab": 2718,
      "Ach": 2719,
      "evil": 2720,
      "fled": 2721,
      "tes": 2722,
      "zed": 2723,
      "ames": 2724,
      "LAFE": 2725,
      "beggar": 2726,
      "Stay": 2727,
      "summer": 2728,
      "BURY": 2729,
      "Somerset": 2730,
      "LAFEW": 2731,
      "BIAN": 2732,
      "FR": 2733,
      "NE": 2734,
      "eed": 2735,
      "frown": 2736,
      "anci": 2737,
      "Whom": 2738,
      "six": 2739,
      "ilty": 2740,
      "thence": 2741,
      "proper": 2742,
      "ATOR": 2743,
      "cheek": 2744,
      "jewel": 2745,
      "Flourish": 2746,
      "obey": 2747,
      "Welcome": 2748,
      "measure": 2749,
      "Co": 2750,
      "DAU": 2751,
      "Gree": 2752,
      "ald": 2753,
      "awhile": 2754,
      "blame": 2755,
      "cite": 2756,
      "kin": 2757,
      "ror": 2758,
      "uch": 2759,
      "thor": 2760,
      "inion": 2761,
      "llen": 2762,
      "ley": 2763,
      "limb": 2764,
      "sie": 2765,
      "ONIUS": 2766,
      "Into": 2767,
      "fied": 2768,
      "fearful": 2769,
      "Unless": 2770,
      "Poor": 2771,
      "stood": 2772,
      "BROKE": 2773,
      "Fie": 2774,
      "aid": 2775,
      "cir": 2776,
      "catch": 2777,
      "drum": 2778,
      "ked": 2779,
      "pes": 2780,
      "pure": 2781,
      "sus": 2782,
      "anon": 2783,
      "ander": 2784,
      "adv": 2785,
      "supp": 2786,
      "ility": 2787,
      "spur": 2788,
      "bert": 2789,
      "clear": 2790,
      "weary": 2791,
      "dinner": 2792,
      "pherd": 2793,
      "Ad": 2794,
      "Bes": 2795,
      "EV": 2796,
      "Mont": 2797,
      "OS": 2798,
      "RIUS": 2799,
      "due": 2800,
      "sme": 2801,
      "thro": 2802,
      "army": 2803,
      "stone": 2804,
      "vey": 2805,
      "Those": 2806,
      "rose": 2807,
      "ties": 2808,
      "mali": 2809,
      "aking": 2810,
      "iling": 2811,
      "dience": 2812,
      "Margar": 2813,
      "glory": 2814,
      "temp": 2815,
      "sorry": 2816,
      "stop": 2817,
      "pains": 2818,
      "centio": 2819,
      "borne": 2820,
      "sharp": 2821,
      "Margaret": 2822,
      "Ale": 2823,
      "Cam": 2824,
      "CAM": 2825,
      "GA": 2826,
      "VIUS": 2827,
      "alive": 2828,
      "kins": 2829,
      "pub": 2830,
      "song": 2831,
      "yra": 2832,
      "ens": 2833,
      "iti": 2834,
      "itors": 2835,
      "shadow": 2836,
      "ici": 2837,
      "honesty": 2838,
      "greater": 2839,
      "calls": 2840,
      "plague": 2841,
      "purse": 2842,
      "grand": 2843,
      "banished": 2844,
      "spring": 2845,
      "swift": 2846,
      "Achilles": 2847,
      "_D": 2848,
      "dle": 2849,
      "gate": 2850,
      "lend": 2851,
      "mend": 2852,
      "sort": 2853,
      "sooth": 2854,
      "inno": 2855,
      "ENS": 2856,
      "offic": 2857,
      "RIAN": 2858,
      "cheeks": 2859,
      "Char": 2860,
      "several": 2861,
      "dishon": 2862,
      "bastard": 2863,
      "public": 2864,
      "Ge": 2865,
      "IT": 2866,
      "dance": 2867,
      "ime": 2868,
      "ler": 2869,
      "sland": 2870,
      "taste": 2871,
      "top": 2872,
      "thout": 2873,
      "unning": 2874,
      "ided": 2875,
      "ANNE": 2876,
      "iffer": 2877,
      "cian": 2878,
      "embrace": 2879,
      "Dost": 2880,
      "ETRIUS": 2881,
      "DEMETRIUS": 2882,
      "Cassius": 2883,
      "TRANIO": 2884,
      "LYS": 2885,
      "Corio": 2886,
      "scarce": 2887,
      "Without": 2888,
      "jealous": 2889,
      "Ber": 2890,
      "Sen": 2891,
      "rat": 2892,
      "wine": 2893,
      "wounds": 2894,
      "amon": 2895,
      "concl": 2896,
      "North": 2897,
      "drawn": 2898,
      "rank": 2899,
      "large": 2900,
      "THERSI": 2901,
      "Soldiers": 2902,
      "Alex": 2903,
      "THERSITES": 2904,
      "Phi": 2905,
      "_He": 2906,
      "brow": 2907,
      "cat": 2908,
      "lest": 2909,
      "mut": 2910,
      "rob": 2911,
      "tian": 2912,
      "few": 2913,
      "ANO": 2914,
      "endure": 2915,
      "ular": 2916,
      "table": 2917,
      "viol": 2918,
      "LAW": 2919,
      "ignor": 2920,
      "REW": 2921,
      "silver": 2922,
      "Both": 2923,
      "FRIAR": 2924,
      "ADRIAN": 2925,
      "occas": 2926,
      "IP": 2927,
      "IFF": 2928,
      "POST": 2929,
      "vate": 2930,
      "lease": 2931,
      "ced": 2932,
      "usur": 2933,
      "mod": 2934,
      "ORA": 2935,
      "THUM": 2936,
      "REG": 2937,
      "struck": 2938,
      "walls": 2939,
      "HOSTESS": 2940,
      "wretched": 2941,
      "Ere": 2942,
      "HUM": 2943,
      "Iago": 2944,
      "Jew": 2945,
      "ade": 2946,
      "ack": 2947,
      "hy": 2948,
      "rise": 2949,
      "wd": 2950,
      "instant": 2951,
      "tear": 2952,
      "bling": 2953,
      "flowers": 2954,
      "fig": 2955,
      "ANDREW": 2956,
      "holds": 2957,
      "wits": 2958,
      "BERLAND": 2959,
      "mia": 2960,
      "prisoner": 2961,
      "bestow": 2962,
      "NORTHUM": 2963,
      "success": 2964,
      "MALVOLIO": 2965,
      "SENATOR": 2966,
      "EVANS": 2967,
      "itizen": 2968,
      "NORTHUMBERLAND": 2969,
      "Fo": 2970,
      "MOR": 2971,
      "fru": 2972,
      "nest": 2973,
      "winter": 2974,
      "thither": 2975,
      "reven": 2976,
      "lean": 2977,
      "flower": 2978,
      "ENTIO": 2979,
      "compan": 2980,
      "kindness": 2981,
      "humble": 2982,
      "request": 2983,
      "POLONIUS": 2984,
      "Moor": 2985,
      "church": 2986,
      "drunk": 2987,
      "Ke": 2988,
      "Ly": 2989,
      "Lest": 2990,
      "intend": 2991,
      "chang": 2992,
      "fame": 2993,
      "ERS": 2994,
      "victor": 2995,
      "folly": 2996,
      "Anne": 2997,
      "SEY": 2998,
      "prepar": 2999,
      "wert": 3000,
      "Palamon": 3001,
      "condition": 3002,
      "Clif": 3003,
      "EX": 3004,
      "MOTH": 3005,
      "corn": 3006,
      "cunning": 3007,
      "dwell": 3008,
      "mere": 3009,
      "vin": 3010,
      "arg": 3011,
      "ators": 3012,
      "sem": 3013,
      "because": 3014,
      "liver": 3015,
      "deal": 3016,
      "road": 3017,
      "amb": 3018,
      "tial": 3019,
      "neck": 3020,
      "goodly": 3021,
      "fright": 3022,
      "emp": 3023,
      "learned": 3024,
      "HERM": 3025,
      "demand": 3026,
      "approach": 3027,
      "COST": 3028,
      "CYM": 3029,
      "bones": 3030,
      "gross": 3031,
      "pun": 3032,
      "powers": 3033,
      "tur": 3034,
      "vish": 3035,
      "yal": 3036,
      "vell": 3037,
      "aside": 3038,
      "oop": 3039,
      "alm": 3040,
      "sail": 3041,
      "import": 3042,
      "Offic": 3043,
      "hearing": 3044,
      "tents": 3045,
      "opinion": 3046,
      "falls": 3047,
      "Bring": 3048,
      "venture": 3049,
      "BELINE": 3050,
      "After": 3051,
      "Keep": 3052,
      "COSTARD": 3053,
      "CYMBELINE": 3054,
      "BRA": 3055,
      "House": 3056,
      "TEN": 3057,
      "aunt": 3058,
      "bare": 3059,
      "mour": 3060,
      "orrow": 3061,
      "ises": 3062,
      "methinks": 3063,
      "key": 3064,
      "amor": 3065,
      "fears": 3066,
      "shine": 3067,
      "aked": 3068,
      "bleed": 3069,
      "hadst": 3070,
      "excuse": 3071,
      "offend": 3072,
      "courage": 3073,
      "priest": 3074,
      "precious": 3075,
      "clou": 3076,
      "Art": 3077,
      "wanton": 3078,
      "drop": 3079,
      "creature": 3080,
      "KATHERINA": 3081,
      "Indeed": 3082,
      "Bol": 3083,
      "MUN": 3084,
      "Ne": 3085,
      "OU": 3086,
      "Pat": 3087,
      "Tower": 3088,
      "bon": 3089,
      "hin": 3090,
      "var": 3091,
      "stars": 3092,
      "ingbroke": 3093,
      "leg": 3094,
      "forbid": 3095,
      "usion": 3096,
      "lot": 3097,
      "rude": 3098,
      "moved": 3099,
      "knowledge": 3100,
      "perfect": 3101,
      "ILLO": 3102,
      "EDMUN": 3103,
      "clock": 3104,
      "highness": 3105,
      "greet": 3106,
      "wicked": 3107,
      "While": 3108,
      "Juli": 3109,
      "liberty": 3110,
      "George": 3111,
      "Bolingbroke": 3112,
      "EDMUND": 3113,
      "Fare": 3114,
      "PUC": 3115,
      "West": 3116,
      "YSS": 3117,
      "boun": 3118,
      "vest": 3119,
      "threat": 3120,
      "ester": 3121,
      "demon": 3122,
      "advantage": 3123,
      "tire": 3124,
      "necess": 3125,
      "rupt": 3126,
      "ESCAL": 3127,
      "cost": 3128,
      "expect": 3129,
      "foe": 3130,
      "mission": 3131,
      "private": 3132,
      "triumph": 3133,
      "Shallow": 3134,
      "tongues": 3135,
      "Alarum": 3136,
      "Hero": 3137,
      "ULYSS": 3138,
      "visit": 3139,
      "princely": 3140,
      "judgement": 3141,
      "Jack": 3142,
      "Clifford": 3143,
      "Juliet": 3144,
      "ESCALUS": 3145,
      "ULYSSES": 3146,
      "?—": 3147,
      "CK": 3148,
      "Could": 3149,
      "Ho": 3150,
      "WOL": 3151,
      "YLO": 3152,
      "fain": 3153,
      "hunt": 3154,
      "ns": 3155,
      "isbury": 3156,
      "ishop": 3157,
      "revo": 3158,
      "verse": 3159,
      "idius": 3160,
      "uphin": 3161,
      "CHESS": 3162,
      "DUFF": 3163,
      "DUCHESS": 3164,
      "Arcite": 3165,
      "Unto": 3166,
      "maiden": 3167,
      "pier": 3168,
      "SHYLO": 3169,
      "MACDUFF": 3170,
      "wait": 3171,
      "choice": 3172,
      "conquer": 3173,
      "BOYET": 3174,
      "Dauphin": 3175,
      "Salisbury": 3176,
      "physi": 3177,
      "ancient": 3178,
      "smell": 3179,
      "ADRIANA": 3180,
      "WOLSEY": 3181,
      "SHYLOCK": 3182,
      "Emi": 3183,
      "Gre": 3184,
      "Lanc": 3185,
      "VI": 3186,
      "WAT": 3187,
      "_K": 3188,
      "cup": 3189,
      "knock": 3190,
      "pin": 3191,
      "rous": 3192,
      "sn": 3193,
      "heat": 3194,
      "reck": 3195,
      "leaves": 3196,
      "wixt": 3197,
      "former": 3198,
      "terms": 3199,
      "rogue": 3200,
      "mach": 3201,
      "quite": 3202,
      "persu": 3203,
      "shouldst": 3204,
      "affair": 3205,
      "angu": 3206,
      "foes": 3207,
      "monster": 3208,
      "guilty": 3209,
      "Caius": 3210,
      "MARIA": 3211,
      "smile": 3212,
      "kni": 3213,
      "choly": 3214,
      "Methinks": 3215,
      "defend": 3216,
      "CLIFF": 3217,
      "umberland": 3218,
      "Prithee": 3219,
      "ronic": 3220,
      "Macbeth": 3221,
      "Rosalind": 3222,
      "POSTHUM": 3223,
      "Lancaster": 3224,
      "POSTHUMUS": 3225,
      "CR": 3226,
      "Get": 3227,
      "HORT": 3228,
      "TIUS": 3229,
      "Ver": 3230,
      "fish": 3231,
      "ial": 3232,
      "non": 3233,
      "nay": 3234,
      "ua": 3235,
      "ores": 3236,
      "story": 3237,
      "legs": 3238,
      "owe": 3239,
      "allow": 3240,
      "rot": 3241,
      "ament": 3242,
      "ERD": 3243,
      "poin": 3244,
      "mund": 3245,
      "iful": 3246,
      "blows": 3247,
      "CHIMO": 3248,
      "spend": 3249,
      "IACHIMO": 3250,
      "greatness": 3251,
      "looked": 3252,
      "chase": 3253,
      "virgin": 3254,
      "CLOTEN": 3255,
      "grows": 3256,
      "consider": 3257,
      "knee": 3258,
      "third": 3259,
      "Valentine": 3260,
      "itizens": 3261,
      "HORTENS": 3262,
      "AST": 3263,
      "Mer": 3264,
      "Mus": 3265,
      "Two": 3266,
      "Wilt": 3267,
      "treas": 3268,
      "vouch": 3269,
      "enjoy": 3270,
      "encounter": 3271,
      "hill": 3272,
      "rice": 3273,
      "ney": 3274,
      "tail": 3275,
      "sirrah": 3276,
      "author": 3277,
      "cock": 3278,
      "wherefore": 3279,
      "Wherein": 3280,
      "honours": 3281,
      "bearing": 3282,
      "Edmund": 3283,
      "Made": 3284,
      "damn": 3285,
      "rascal": 3286,
      "FLU": 3287,
      "VIR": 3288,
      "Vol": 3289,
      "WO": 3290,
      "bene": 3291,
      "dry": 3292,
      "lp": 3293,
      "tree": 3294,
      "wing": 3295,
      "thunder": 3296,
      "inj": 3297,
      "heed": 3298,
      "heels": 3299,
      "meat": 3300,
      "melan": 3301,
      "ria": 3302,
      "ries": 3303,
      "yourselves": 3304,
      "fee": 3305,
      "manners": 3306,
      "constant": 3307,
      "comple": 3308,
      "safet": 3309,
      "spent": 3310,
      "QUICK": 3311,
      "train": 3312,
      "paid": 3313,
      "fellows": 3314,
      "Hastings": 3315,
      "wrath": 3316,
      "simple": 3317,
      "QUICKLY": 3318,
      "BOL": 3319,
      "IE": 3320,
      "TOU": 3321,
      "cried": 3322,
      "game": 3323,
      "net": 3324,
      "skill": 3325,
      "tw": 3326,
      "ances": 3327,
      "memor": 3328,
      "forest": 3329,
      "roar": 3330,
      "ama": 3331,
      "fail": 3332,
      "ards": 3333,
      "contr": 3334,
      "STONE": 3335,
      "ify": 3336,
      "wash": 3337,
      "INGBROKE": 3338,
      "CHSTONE": 3339,
      "Beat": 3340,
      "tray": 3341,
      "tyrant": 3342,
      "ILLES": 3343,
      "emperor": 3344,
      "wrongs": 3345,
      "ROSALINE": 3346,
      "damned": 3347,
      "JAQU": 3348,
      "ploy": 3349,
      "ACHILLES": 3350,
      "Christian": 3351,
      "circ": 3352,
      "Northumberland": 3353,
      "melancholy": 3354,
      "safety": 3355,
      "BOLINGBROKE": 3356,
      "TOUCHSTONE": 3357,
      "Au": 3358,
      "Hence": 3359,
      "IX": 3360,
      "TAL": 3361,
      "VIA": 3362,
      "_Re": 3363,
      "fond": 3364,
      "gg": 3365,
      "jax": 3366,
      "loud": 3367,
      "swords": 3368,
      "slaughter": 3369,
      "thief": 3370,
      "sell": 3371,
      "seven": 3372,
      "doing": 3373,
      "lover": 3374,
      "END": 3375,
      "shepherd": 3376,
      "heavenly": 3377,
      "commit": 3378,
      "lawful": 3379,
      "steel": 3380,
      "stuff": 3381,
      "finger": 3382,
      "mountain": 3383,
      "Friar": 3384,
      "Leonato": 3385,
      "BASSANIO": 3386,
      "Besides": 3387,
      "Ajax": 3388,
      "Bian": 3389,
      "COM": 3390,
      "Gi": 3391,
      "HAST": 3392,
      "IEL": 3393,
      "Put": 3394,
      "cil": 3395,
      "cate": 3396,
      "cul": 3397,
      "fie": 3398,
      "faint": 3399,
      "garm": 3400,
      "hors": 3401,
      "mp": 3402,
      "rare": 3403,
      "rate": 3404,
      "sy": 3405,
      "ume": 3406,
      "stro": 3407,
      "start": 3408,
      "nose": 3409,
      "reput": 3410,
      "habit": 3411,
      "weap": 3412,
      "ety": 3413,
      "loyal": 3414,
      "ident": 3415,
      "INGS": 3416,
      "cot": 3417,
      "sometime": 3418,
      "stern": 3419,
      "Marcus": 3420,
      "keeps": 3421,
      "CAMILLO": 3422,
      "Charles": 3423,
      "occasion": 3424,
      "REGAN": 3425,
      "Bianca": 3426,
      "HASTINGS": 3427,
      "Long": 3428,
      "SO": 3429,
      "WER": 3430,
      "dur": 3431,
      "naught": 3432,
      "metri": 3433,
      "widow": 3434,
      "betray": 3435,
      "cease": 3436,
      "unless": 3437,
      "idle": 3438,
      "sack": 3439,
      "perate": 3440,
      "mayst": 3441,
      "icles": 3442,
      "desires": 3443,
      "employ": 3444,
      "Sirrah": 3445,
      "brothers": 3446,
      "Norfolk": 3447,
      "throne": 3448,
      "Demetri": 3449,
      "SERVING": 3450,
      "Percy": 3451,
      "CORN": 3452,
      "oaths": 3453,
      "Proteus": 3454,
      "solemn": 3455,
      "Follow": 3456,
      "WATCH": 3457,
      "TALBOT": 3458,
      "Demetrius": 3459,
      "Bl": 3460,
      "Bid": 3461,
      "Hang": 3462,
      "Mon": 3463,
      "PTI": 3464,
      "Show": 3465,
      "ape": 3466,
      "food": 3467,
      "fought": 3468,
      "mbr": 3469,
      "ulet": 3470,
      "wake": 3471,
      "atra": 3472,
      "leis": 3473,
      "blest": 3474,
      "Exeunt": 3475,
      "agger": 3476,
      "prov": 3477,
      "broken": 3478,
      "wards": 3479,
      "madness": 3480,
      "opatra": 3481,
      "cursed": 3482,
      "courtesy": 3483,
      "Capulet": 3484,
      "lament": 3485,
      "Venice": 3486,
      "Cleopatra": 3487,
      "HORTENSIO": 3488,
      "_Reads": 3489,
      "Bened": 3490,
      "FA": 3491,
      "Kent": 3492,
      "NIA": 3493,
      "Pardon": 3494,
      "Ste": 3495,
      "duke": 3496,
      "fury": 3497,
      "number": 3498,
      "ply": 3499,
      "rans": 3500,
      "step": 3501,
      "dec": 3502,
      "dev": 3503,
      "deceive": 3504,
      "whence": 3505,
      "INS": 3506,
      "ieu": 3507,
      "protest": 3508,
      "spite": 3509,
      "acle": 3510,
      "strous": 3511,
      "remembr": 3512,
      "minister": 3513,
      "colours": 3514,
      "thrice": 3515,
      "FRIEND": 3516,
      "govern": 3517,
      "malice": 3518,
      "argument": 3519,
      "Emilia": 3520,
      "Hal": 3521,
      "ITH": 3522,
      "LANCE": 3523,
      "SON": 3524,
      "Time": 3525,
      "dust": 3526,
      "differ": 3527,
      "fare": 3528,
      "gown": 3529,
      "grown": 3530,
      "vous": 3531,
      "vows": 3532,
      "orious": 3533,
      "reign": 3534,
      "seat": 3535,
      "sequ": 3536,
      "doom": 3537,
      "urg": 3538,
      "neg": 3539,
      "IAM": 3540,
      "abs": 3541,
      "lands": 3542,
      "ATIAN": 3543,
      "Wherefore": 3544,
      "flood": 3545,
      "preh": 3546,
      "partic": 3547,
      "follows": 3548,
      "BAPTI": 3549,
      "repent": 3550,
      "weeping": 3551,
      "slow": 3552,
      "silence": 3553,
      "kneel": 3554,
      "Captain": 3555,
      "JAIL": 3556,
      "ELLEN": 3557,
      "GRATIAN": 3558,
      "twice": 3559,
      "FOOL": 3560,
      "Tomorrow": 3561,
      "slander": 3562,
      "fruit": 3563,
      "FLUELLEN": 3564,
      "SERVINGMAN": 3565,
      "BAPTISTA": 3566,
      "GRATIANO": 3567,
      "Dou": 3568,
      "Dian": 3569,
      "IGO": 3570,
      "Please": 3571,
      "Still": 3572,
      "TOL": 3573,
      "YCUS": 3574,
      "_Within": 3575,
      "bend": 3576,
      "ensi": 3577,
      "stones": 3578,
      "whis": 3579,
      "lovers": 3580,
      "conj": 3581,
      "disgrace": 3582,
      "dign": 3583,
      "wherein": 3584,
      "armour": 3585,
      "miser": 3586,
      "fix": 3587,
      "fiend": 3588,
      "Prin": 3589,
      "witch": 3590,
      "MONT": 3591,
      "griefs": 3592,
      "AUTOL": 3593,
      "whether": 3594,
      "burden": 3595,
      "dreadful": 3596,
      "Silvia": 3597,
      "gift": 3598,
      "affairs": 3599,
      "knife": 3600,
      "horses": 3601,
      "leisure": 3602,
      "JAILER": 3603,
      "AUTOLYCUS": 3604,
      "Pet": 3605,
      "Save": 3606,
      "ded": 3607,
      "hat": 3608,
      "line": 3609,
      "wag": 3610,
      "essed": 3611,
      "reed": 3612,
      "liar": 3613,
      "ters": 3614,
      "ENES": 3615,
      "UST": 3616,
      "disdain": 3617,
      "dig": 3618,
      "civil": 3619,
      "desperate": 3620,
      "monstrous": 3621,
      "guilt": 3622,
      "tenance": 3623,
      "yea": 3624,
      "ISBURY": 3625,
      "MARCUS": 3626,
      "killed": 3627,
      "pleased": 3628,
      "pict": 3629,
      "cries": 3630,
      "subjects": 3631,
      "sighs": 3632,
      "SALISBURY": 3633,
      "school": 3634,
      "POINS": 3635,
      "clouds": 3636,
      "COMINIUS": 3637,
      "Benedick": 3638,
      "Cress": 3639,
      "Egy": 3640,
      "HOL": 3641,
      "VOST": 3642,
      "cing": 3643,
      "flies": 3644,
      "fancy": 3645,
      "ip": 3646,
      "orat": 3647,
      "formed": 3648,
      "weight": 3649,
      "sho": 3650,
      "shore": 3651,
      "teen": 3652,
      "STEPH": 3653,
      "iff": 3654,
      "perform": 3655,
      "dispatch": 3656,
      "vius": 3657,
      "abroad": 3658,
      "miss": 3659,
      "CADE": 3660,
      "lived": 3661,
      "chain": 3662,
      "RUM": 3663,
      "bids": 3664,
      "Lucentio": 3665,
      "swore": 3666,
      "awake": 3667,
      "PROVOST": 3668,
      "Flor": 3669,
      "borrow": 3670,
      "easy": 3671,
      "execution": 3672,
      "GHTER": 3673,
      "Britain": 3674,
      "neighbour": 3675,
      "DAUGHTER": 3676,
      "Just": 3677,
      "Mil": 3678,
      "Twas": 3679,
      "fif": 3680,
      "fits": 3681,
      "ience": 3682,
      "ize": 3683,
      "langu": 3684,
      "pound": 3685,
      "wings": 3686,
      "ences": 3687,
      "enforce": 3688,
      "regard": 3689,
      "weigh": 3690,
      "deg": 3691,
      "loath": 3692,
      "ERIUS": 3693,
      "quit": 3694,
      "goodness": 3695,
      "exam": 3696,
      "begins": 3697,
      "BERT": 3698,
      "reasons": 3699,
      "Only": 3700,
      "appears": 3701,
      "seeming": 3702,
      "plot": 3703,
      "quality": 3704,
      "Desdemon": 3705,
      "treasure": 3706,
      "circum": 3707,
      "Cressid": 3708,
      "STEPHANO": 3709,
      "BEN": 3710,
      "GRUM": 3711,
      "MIAN": 3712,
      "Nature": 3713,
      "OW": 3714,
      "Set": 3715,
      "Too": 3716,
      "WILL": 3717,
      "bark": 3718,
      "big": 3719,
      "fy": 3720,
      "furn": 3721,
      "mild": 3722,
      "pu": 3723,
      "warm": 3724,
      "tomb": 3725,
      "uten": 3726,
      "fav": 3727,
      "faction": 3728,
      "outward": 3729,
      "sau": 3730,
      "express": 3731,
      "trans": 3732,
      "trial": 3733,
      "guest": 3734,
      "MARINA": 3735,
      "stomach": 3736,
      "maids": 3737,
      "happiness": 3738,
      "Pericles": 3739,
      "profess": 3740,
      "counterfeit": 3741,
      "supper": 3742,
      "CHARMIAN": 3743,
      "Montague": 3744,
      "Officers": 3745,
      "BENVOLIO": 3746,
      "GRUMIO": 3747,
      "Ac": 3748,
      "CUT": 3749,
      "Em": 3750,
      "Either": 3751,
      "MED": 3752,
      "OPH": 3753,
      "buck": 3754,
      "dru": 3755,
      "pick": 3756,
      "wide": 3757,
      "wives": 3758,
      "forsworn": 3759,
      "liv": 3760,
      "liest": 3761,
      "debt": 3762,
      "ride": 3763,
      "doors": 3764,
      "ERTES": 3765,
      "ARINE": 3766,
      "apt": 3767,
      "THARINE": 3768,
      "discourse": 3769,
      "vide": 3770,
      "bred": 3771,
      "whereof": 3772,
      "LAERTES": 3773,
      "countenance": 3774,
      "warlike": 3775,
      "whilst": 3776,
      "welve": 3777,
      "LUCENTIO": 3778,
      "buried": 3779,
      "DIOMED": 3780,
      "burning": 3781,
      "Whilst": 3782,
      "KATHARINE": 3783,
      "gallant": 3784,
      "MERCUT": 3785,
      "hopes": 3786,
      "towards": 3787,
      "True": 3788,
      "season": 3789,
      "Tyb": 3790,
      "remembrance": 3791,
      "DIOMEDES": 3792,
      "MERCUTIO": 3793,
      "Ban": 3794,
      "Bra": 3795,
      "Don": 3796,
      "FOLK": 3797,
      "Mal": 3798,
      "Ret": 3799,
      "Tri": 3800,
      "_The": 3801,
      "hit": 3802,
      "swell": 3803,
      "wond": 3804,
      "enet": 3805,
      "melt": 3806,
      "reg": 3807,
      "recei": 3808,
      "Thom": 3809,
      "always": 3810,
      "ram": 3811,
      "making": 3812,
      "faces": 3813,
      "condem": 3814,
      "modest": 3815,
      "teeth": 3816,
      "STER": 3817,
      "sheep": 3818,
      "bled": 3819,
      "Bear": 3820,
      "affect": 3821,
      "woes": 3822,
      "standing": 3823,
      "PHIL": 3824,
      "angel": 3825,
      "crowns": 3826,
      "remedy": 3827,
      "spoken": 3828,
      "hanged": 3829,
      "painted": 3830,
      "deserve": 3831,
      "knees": 3832,
      "VOLUM": 3833,
      "lanus": 3834,
      "drops": 3835,
      "thrive": 3836,
      "mirth": 3837,
      "credit": 3838,
      "NORFOLK": 3839,
      "direct": 3840,
      "Coriolanus": 3841,
      "revolt": 3842,
      "ransom": 3843,
      "Desdemona": 3844,
      "WILLIAM": 3845,
      "utenant": 3846,
      "Tybalt": 3847,
      "Thomas": 3848,
      "Cup": 3849,
      "HE": 3850,
      "JUST": 3851,
      "Kather": 3852,
      "Nurse": 3853,
      "Pand": 3854,
      "Turn": 3855,
      "cuck": 3856,
      "dings": 3857,
      "fed": 3858,
      "mal": 3859,
      "niece": 3860,
      "zard": 3861,
      "arus": 3862,
      "asleep": 3863,
      "forgive": 3864,
      "feet": 3865,
      "hers": 3866,
      "shri": 3867,
      "consu": 3868,
      "ously": 3869,
      "sav": 3870,
      "ARDIN": 3871,
      "mond": 3872,
      "minds": 3873,
      "IDERIUS": 3874,
      "vised": 3875,
      "object": 3876,
      "sooner": 3877,
      "study": 3878,
      "wretch": 3879,
      "GUIDERIUS": 3880,
      "reverend": 3881,
      "Pistol": 3882,
      "Diome": 3883,
      "memory": 3884,
      "JAQUES": 3885,
      "JUSTICE": 3886,
      "Amen": 3887,
      "BAL": 3888,
      "Drom": 3889,
      "Lay": 3890,
      "None": 3891,
      "Othe": 3892,
      "Porti": 3893,
      "ball": 3894,
      "cats": 3895,
      "cket": 3896,
      "equal": 3897,
      "ming": 3898,
      "mil": 3899,
      "nurse": 3900,
      "pend": 3901,
      "pic": 3902,
      "tread": 3903,
      "yonder": 3904,
      "thrust": 3905,
      "ref": 3906,
      "chio": 3907,
      "ution": 3908,
      "lio": 3909,
      "ades": 3910,
      "tide": 3911,
      "ruchio": 3912,
      "shot": 3913,
      "cta": 3914,
      "aptis": 3915,
      "THUR": 3916,
      "Believe": 3917,
      "RODER": 3918,
      "acc": 3919,
      "flow": 3920,
      "womb": 3921,
      "ANDER": 3922,
      "dearest": 3923,
      "clam": 3924,
      "charity": 3925,
      "ULINA": 3926,
      "meaning": 3927,
      "practi": 3928,
      "winds": 3929,
      "PAULINA": 3930,
      "Wales": 3931,
      "Petruchio": 3932,
      "Dromio": 3933,
      "Othello": 3934,
      "Portia": 3935,
      "RODERIGO": 3936,
      "Alack": 3937,
      "Fear": 3938,
      "Humph": 3939,
      "Lie": 3940,
      "Morti": 3941,
      "PIS": 3942,
      "WALL": 3943,
      "bunes": 3944,
      "fro": 3945,
      "honey": 3946,
      "lis": 3947,
      "messenger": 3948,
      "nal": 3949,
      "ping": 3950,
      "render": 3951,
      "twelve": 3952,
      "ano": 3953,
      "envy": 3954,
      "arri": 3955,
      "iter": 3956,
      "assu": 3957,
      "Three": 3958,
      "dew": 3959,
      "Andronic": 3960,
      "ado": 3961,
      "adieu": 3962,
      "ARIUS": 3963,
      "condu": 3964,
      "shed": 3965,
      "Myself": 3966,
      "prosper": 3967,
      "ext": 3968,
      "volio": 3969,
      "prevent": 3970,
      "EMIO": 3971,
      "meeting": 3972,
      "vail": 3973,
      "single": 3974,
      "BELARIUS": 3975,
      "Lavin": 3976,
      "bird": 3977,
      "profit": 3978,
      "trumpets": 3979,
      "Gentlemen": 3980,
      "GREMIO": 3981,
      "SILVIA": 3982,
      "punish": 3983,
      "CLIFFORD": 3984,
      "OPHELIA": 3985,
      "Cupid": 3986,
      "Humphrey": 3987,
      "PISANIO": 3988,
      "Andronicus": 3989,
      "Lavinia": 3990,
      "AAR": 3991,
      "Might": 3992,
      "SLEN": 3993,
      "Scot": 3994,
      "WD": 3995,
      "aim": 3996,
      "fret": 3997,
      "flight": 3998,
      "iest": 3999,
      "loose": 4000,
      "naked": 4001,
      "pho": 4002,
      "sore": 4003,
      "waste": 4004,
      "thick": 4005,
      "intent": 4006,
      "ane": 4007,
      "meant": 4008,
      "belie": 4009,
      "ainted": 4010,
      "EST": 4011,
      "taught": 4012,
      "plead": 4013,
      "undone": 4014,
      "merit": 4015,
      "trick": 4016,
      "BAWD": 4017,
      "Richmond": 4018,
      "Death": 4019,
      "uteous": 4020,
      "POLIX": 4021,
      "Romans": 4022,
      "storm": 4023,
      "tempest": 4024,
      "particular": 4025,
      "VOLUMNIA": 4026,
      "HECTOR": 4027,
      "Mortimer": 4028,
      "AARON": 4029,
      "SLENDER": 4030,
      "POLIXENES": 4031,
      "Bro": 4032,
      "Den": 4033,
      "Each": 4034,
      "SOM": 4035,
      "Very": 4036,
      "bull": 4037,
      "cere": 4038,
      "chaste": 4039,
      "da": 4040,
      "eag": 4041,
      "gan": 4042,
      "iam": 4043,
      "ining": 4044,
      "incl": 4045,
      "invent": 4046,
      "member": 4047,
      "deter": 4048,
      "wither": 4049,
      "lovely": 4050,
      "ALD": 4051,
      "ALBAN": 4052,
      "CHIE": 4053,
      "disgu": 4054,
      "ical": 4055,
      "despair": 4056,
      "nights": 4057,
      "brook": 4058,
      "tyran": 4059,
      "Doctor": 4060,
      "pping": 4061,
      "tract": 4062,
      "deadly": 4063,
      "daughters": 4064,
      "IDIUS": 4065,
      "laws": 4066,
      "taking": 4067,
      "Priam": 4068,
      "garden": 4069,
      "imagin": 4070,
      "twixt": 4071,
      "acquaint": 4072,
      "advance": 4073,
      "kinsman": 4074,
      "dishonour": 4075,
      "figure": 4076,
      "absence": 4077,
      "ALBANY": 4078,
      "CHIEF": 4079,
      "?”": 4080,
      "AJA": 4081,
      "Baptis": 4082,
      "DOL": 4083,
      "Im": 4084,
      "Octa": 4085,
      "RENCE": 4086,
      "Sat": 4087,
      "Tar": 4088,
      "dumb": 4089,
      "gment": 4090,
      "jour": 4091,
      "list": 4092,
      "mas": 4093,
      "nine": 4094,
      "pill": 4095,
      "pie": 4096,
      "sits": 4097,
      "wn": 4098,
      "wink": 4099,
      "thum": 4100,
      "armed": 4101,
      "stable": 4102,
      "itude": 4103,
      "aine": 4104,
      "ruin": 4105,
      "rule": 4106,
      "shut": 4107,
      "quire": 4108,
      "hollow": 4109,
      "peril": 4110,
      "DUMA": 4111,
      "tribut": 4112,
      "prey": 4113,
      "traitors": 4114,
      "denied": 4115,
      "Hermia": 4116,
      "turned": 4117,
      "Provo": 4118,
      "sickness": 4119,
      "custom": 4120,
      "obedience": 4121,
      "Protector": 4122,
      "maintain": 4123,
      "satisfied": 4124,
      "girl": 4125,
      "sieur": 4126,
      "innocent": 4127,
      "officer": 4128,
      "LAWRENCE": 4129,
      "CORNWALL": 4130,
      "AJAX": 4131,
      "Baptista": 4132,
      "DUMAINE": 4133,
      "Bass": 4134,
      "CU": 4135,
      "Cl": 4136,
      "HU": 4137,
      "Hort": 4138,
      "Lear": 4139,
      "Mars": 4140,
      "NON": 4141,
      "Sp": 4142,
      "Tran": 4143,
      "bb": 4144,
      "bla": 4145,
      "bought": 4146,
      "fidius": 4147,
      "ix": 4148,
      "pul": 4149,
      "sour": 4150,
      "sees": 4151,
      "alas": 4152,
      "uses": 4153,
      "ros": 4154,
      "lod": 4155,
      "tidings": 4156,
      "willing": 4157,
      "estate": 4158,
      "suck": 4159,
      "shrew": 4160,
      "illo": 4161,
      "convey": 4162,
      "aged": 4163,
      "sometimes": 4164,
      "vious": 4165,
      "AMEM": 4166,
      "early": 4167,
      "earnest": 4168,
      "brings": 4169,
      "March": 4170,
      "preser": 4171,
      "William": 4172,
      "OFERN": 4173,
      "deri": 4174,
      "AGAMEM": 4175,
      "virtues": 4176,
      "Once": 4177,
      "Peter": 4178,
      "crack": 4179,
      "renown": 4180,
      "received": 4181,
      "treach": 4182,
      "despite": 4183,
      "picture": 4184,
      "HOLOFERN": 4185,
      "Bassanio": 4186,
      "Hortensi": 4187,
      "AGAMEMNON": 4188,
      "HOLOFERNES": 4189,
      "gon": 4190,
      "ient": 4191,
      "ired": 4192,
      "tance": 4193,
      "vity": 4194,
      "thie": 4195,
      "err": 4196,
      "haps": 4197,
      "leans": 4198,
      "becomes": 4199,
      "whore": 4200,
      "Toby": 4201,
      "pron": 4202,
      "Help": 4203,
      "sacred": 4204,
      "apart": 4205,
      "saying": 4206,
      "perj": 4207,
      "proclaim": 4208,
      "prophe": 4209,
      "discover": 4210,
      "spare": 4211,
      "exceed": 4212,
      "sweat": 4213,
      "abuse": 4214,
      "void": 4215,
      "voices": 4216,
      "guess": 4217,
      "tedious": 4218,
      "MARTIUS": 4219,
      "BERRY": 4220,
      "sander": 4221,
      "clothe": 4222,
      "humbly": 4223,
      "sounds": 4224,
      "Theseus": 4225,
      "streets": 4226,
      "freely": 4227,
      "rash": 4228,
      "Servants": 4229,
      "image": 4230,
      "divine": 4231,
      "Quick": 4232,
      "human": 4233,
      "throat": 4234,
      "modesty": 4235,
      "Lysander": 4236,
      "complex": 4237,
      "Aufidius": 4238,
      "Dear": 4239,
      "GBERRY": 4240,
      "Has": 4241,
      "Isa": 4242,
      "Stri": 4243,
      "VII": 4244,
      "Whither": 4245,
      "YER": 4246,
      "fun": 4247,
      "ible": 4248,
      "names": 4249,
      "tap": 4250,
      "”.": 4251,
      "iny": 4252,
      "ona": 4253,
      "realm": 4254,
      "begu": 4255,
      "below": 4256,
      "lig": 4257,
      "ripe": 4258,
      "rible": 4259,
      "tier": 4260,
      "tied": 4261,
      "este": 4262,
      "commission": 4263,
      "sage": 4264,
      "therein": 4265,
      "ROSS": 4266,
      "greatest": 4267,
      "strang": 4268,
      "CAIUS": 4269,
      "prepare": 4270,
      "dying": 4271,
      "everything": 4272,
      "turns": 4273,
      "dress": 4274,
      "DOCTOR": 4275,
      "DOGBERRY": 4276,
      "ducats": 4277,
      "attending": 4278,
      "birds": 4279,
      "salt": 4280,
      "dares": 4281,
      "groan": 4282,
      "suddenly": 4283,
      "horns": 4284,
      "suspect": 4285,
      "Camillo": 4286,
      "victory": 4287,
      "empty": 4288,
      "authority": 4289,
      "HUBERT": 4290,
      "Hortensio": 4291,
      "Burg": 4292,
      "Chi": 4293,
      "Cour": 4294,
      "Makes": 4295,
      "NI": 4296,
      "Oli": 4297,
      "Sl": 4298,
      "TAM": 4299,
      "Wind": 4300,
      "ZAL": 4301,
      "dit": 4302,
      "numb": 4303,
      "ws": 4304,
      "inches": 4305,
      "assure": 4306,
      "forbear": 4307,
      "tily": 4308,
      "ERIL": 4309,
      "shallow": 4310,
      "sire": 4311,
      "provo": 4312,
      "disposition": 4313,
      "ples": 4314,
      "stranger": 4315,
      "mischief": 4316,
      "undy": 4317,
      "fiery": 4318,
      "purpos": 4319,
      "Ross": 4320,
      "Thanks": 4321,
      "stock": 4322,
      "wax": 4323,
      "stream": 4324,
      "wallow": 4325,
      "vengeance": 4326,
      "Capi": 4327,
      "PARIS": 4328,
      "sky": 4329,
      "Troj": 4330,
      "_Sings": 4331,
      "GONZAL": 4332,
      "GONERIL": 4333,
      "CHARLES": 4334,
      "Beatrice": 4335,
      "FABIAN": 4336,
      "Burgundy": 4337,
      "GONZALO": 4338,
      "Cha": 4339,
      "El": 4340,
      "ION": 4341,
      "IBAN": 4342,
      "MIR": 4343,
      "WIT": 4344,
      "boot": 4345,
      "cave": 4346,
      "fin": 4347,
      "hung": 4348,
      "snow": 4349,
      "smo": 4350,
      "zz": 4351,
      "thur": 4352,
      "token": 4353,
      "noon": 4354,
      "retire": 4355,
      "search": 4356,
      "chide": 4357,
      "hid": 4358,
      "ghost": 4359,
      "device": 4360,
      "INUS": 4361,
      "poli": 4362,
      "worn": 4363,
      "Forest": 4364,
      "lets": 4365,
      "seeing": 4366,
      "hereafter": 4367,
      "Behold": 4368,
      "plant": 4369,
      "account": 4370,
      "mony": 4371,
      "ANDA": 4372,
      "glorious": 4373,
      "prize": 4374,
      "Franc": 4375,
      "gues": 4376,
      "oler": 4377,
      "phes": 4378,
      "Alb": 4379,
      "Arthur": 4380,
      "Lucre": 4381,
      "gener": 4382,
      "CALIBAN": 4383,
      "KATHERINE": 4384,
      "Plant": 4385,
      "Helena": 4386,
      "llenge": 4387,
      "LYSANDER": 4388,
      "violent": 4389,
      "ERSET": 4390,
      "garments": 4391,
      "Brother": 4392,
      "SOMERSET": 4393,
      "Olivia": 4394,
      "MIRANDA": 4395,
      "WITCH": 4396,
      "Francis": 4397,
      "BLE": 4398,
      "COL": 4399,
      "Coun": 4400,
      "Gon": 4401,
      "NINUS": 4402,
      "Pres": 4403,
      "Pyra": 4404,
      "SAT": 4405,
      "WEST": 4406,
      "bill": 4407,
      "brows": 4408,
      "bility": 4409,
      "chast": 4410,
      "iz": 4411,
      "py": 4412,
      "page": 4413,
      "ray": 4414,
      "rush": 4415,
      "sway": 4416,
      "sthum": 4417,
      "tort": 4418,
      "yo": 4419,
      "ths": 4420,
      "thorn": 4421,
      "ising": 4422,
      "esti": 4423,
      "owl": 4424,
      "delay": 4425,
      "alo": 4426,
      "aded": 4427,
      "raise": 4428,
      "ENCR": 4429,
      "ARENCE": 4430,
      "morn": 4431,
      "contro": 4432,
      "mogen": 4433,
      "quin": 4434,
      "boast": 4435,
      "bodies": 4436,
      "appreh": 4437,
      "ult": 4438,
      "imper": 4439,
      "ANTZ": 4440,
      "party": 4441,
      "served": 4442,
      "ILLE": 4443,
      "fice": 4444,
      "gentlewoman": 4445,
      "merch": 4446,
      "URNINUS": 4447,
      "QUIN": 4448,
      "followers": 4449,
      "ROSENCR": 4450,
      "petition": 4451,
      "build": 4452,
      "vision": 4453,
      "sleeping": 4454,
      "minute": 4455,
      "Posthum": 4456,
      "Leave": 4457,
      "crave": 4458,
      "desert": 4459,
      "Boy": 4460,
      "CLARENCE": 4461,
      "portion": 4462,
      "ignorant": 4463,
      "twain": 4464,
      "contrary": 4465,
      "durst": 4466,
      "Egypt": 4467,
      "TAMORA": 4468,
      "Capitol": 4469,
      "Pyramus": 4470,
      "SATURNINUS": 4471,
      "ROSENCRANTZ": 4472,
      "Posthumus": 4473,
      "Fe": 4474,
      "Hap": 4475,
      "Imogen": 4476,
      "Pho": 4477,
      "bent": 4478,
      "hark": 4479,
      "mess": 4480,
      "mbel": 4481,
      "rt": 4482,
      "root": 4483,
      "sat": 4484,
      "sides": 4485,
      "wont": 4486,
      "”,": 4487,
      "thrown": 4488,
      "inher": 4489,
      "lled": 4490,
      "store": 4491,
      "recover": 4492,
      "leap": 4493,
      "iron": 4494,
      "advice": 4495,
      "ARIEL": 4496,
      "prise": 4497,
      "blown": 4498,
      "fathers": 4499,
      "tells": 4500,
      "ETER": 4501,
      "ETTA": 4502,
      "Orleans": 4503,
      "prick": 4504,
      "challenge": 4505,
      "finds": 4506,
      "parent": 4507,
      "udge": 4508,
      "confer": 4509,
      "confound": 4510,
      "LUCETTA": 4511,
      "smooth": 4512,
      "window": 4513,
      "beaten": 4514,
      "frame": 4515,
      "Truly": 4516,
      "reverence": 4517,
      "gifts": 4518,
      "Cymbel": 4519,
      "EXETER": 4520,
      "HERMIA": 4521,
      "Provost": 4522,
      "Tranio": 4523,
      "Cymbeline": 4524,
      ",’": 4525,
      "Agame": 4526,
      "BY": 4527,
      "DIANA": 4528,
      "FLA": 4529,
      "Hon": 4530,
      "LOR": 4531,
      "NER": 4532,
      "Old": 4533,
      "Sa": 4534,
      "TOM": 4535,
      "Whe": 4536,
      "ZO": 4537,
      "_T": 4538,
      "bind": 4539,
      "crow": 4540,
      "fil": 4541,
      "luck": 4542,
      "rent": 4543,
      "swallow": 4544,
      "ertes": 4545,
      "vex": 4546,
      "beyond": 4547,
      "charm": 4548,
      "forfeit": 4549,
      "oots": 4550,
      "whores": 4551,
      "felt": 4552,
      "feather": 4553,
      "ENZO": 4554,
      "ARCH": 4555,
      "ARVIR": 4556,
      "INO": 4557,
      "lap": 4558,
      "comfor": 4559,
      "Exeter": 4560,
      "appet": 4561,
      "speci": 4562,
      "spar": 4563,
      "spake": 4564,
      "hearted": 4565,
      "accord": 4566,
      "lando": 4567,
      "fairest": 4568,
      "graces": 4569,
      "empress": 4570,
      "LAIN": 4571,
      "scri": 4572,
      "scene": 4573,
      "misery": 4574,
      "flourish": 4575,
      "fier": 4576,
      "Orlando": 4577,
      "assur": 4578,
      "bade": 4579,
      "ships": 4580,
      "puts": 4581,
      "chair": 4582,
      "undertake": 4583,
      "sentence": 4584,
      "AGUS": 4585,
      "runs": 4586,
      "prisoners": 4587,
      "Julia": 4588,
      "delivered": 4589,
      "mnon": 4590,
      "BOTTOM": 4591,
      "Between": 4592,
      "About": 4593,
      "limbs": 4594,
      "GAV": 4595,
      "Alexand": 4596,
      "pointed": 4597,
      "Music": 4598,
      "reputation": 4599,
      "Clown": 4600,
      "Agamemnon": 4601,
      "FLAVIUS": 4602,
      "LORENZO": 4603,
      "ARVIRAGUS": 4604,
      "Ari": 4605,
      "Draw": 4606,
      "cou": 4607,
      "fant": 4608,
      "mand": 4609,
      "pent": 4610,
      "slight": 4611,
      "sought": 4612,
      "sty": 4613,
      "behalf": 4614,
      "utes": 4615,
      "omin": 4616,
      "alter": 4617,
      "rock": 4618,
      "dogs": 4619,
      "super": 4620,
      "concer": 4621,
      "contempt": 4622,
      "seless": 4623,
      "board": 4624,
      "worm": 4625,
      "appare": 4626,
      "LEY": 4627,
      "ELLE": 4628,
      "offended": 4629,
      "friendship": 4630,
      "parted": 4631,
      "merri": 4632,
      "babe": 4633,
      "vol": 4634,
      "brains": 4635,
      "bush": 4636,
      "pleasures": 4637,
      "smiles": 4638,
      "sorrows": 4639,
      "Cannot": 4640,
      "promised": 4641,
      "corrupt": 4642,
      "servants": 4643,
      "dreams": 4644,
      "knights": 4645,
      "shortly": 4646,
      "castle": 4647,
      "darkness": 4648,
      "Gentleman": 4649,
      "FLOR": 4650,
      "ambition": 4651,
      "PUCELLE": 4652,
      "PHILIP": 4653,
      "practice": 4654,
      "conduct": 4655,
      "complexion": 4656,
      "policy": 4657,
      "Plantag": 4658,
      "10": 4659,
      "Adie": 4660,
      "Bre": 4661,
      "FIDIUS": 4662,
      "Him": 4663,
      "Many": 4664,
      "Pad": 4665,
      "Rep": 4666,
      "Sure": 4667,
      "citizens": 4668,
      "iliar": 4669,
      "knot": 4670,
      "length": 4671,
      "mat": 4672,
      "inite": 4673,
      "ony": 4674,
      "stick": 4675,
      "hazard": 4676,
      "edge": 4677,
      "adies": 4678,
      "unknown": 4679,
      "logue": 4680,
      "tive": 4681,
      "idence": 4682,
      "prus": 4683,
      "moreland": 4684,
      "ured": 4685,
      "Young": 4686,
      "ause": 4687,
      "CHAM": 4688,
      "Thisbe": 4689,
      "speaking": 4690,
      "fairly": 4691,
      "score": 4692,
      "ISH": 4693,
      "BERLAIN": 4694,
      "Roderi": 4695,
      "followed": 4696,
      "cares": 4697,
      "SHEPH": 4698,
      "AUFIDIUS": 4699,
      "Laertes": 4700,
      "Hail": 4701,
      "Whiles": 4702,
      "IZEL": 4703,
      "fingers": 4704,
      "Cyprus": 4705,
      "BIANCA": 4706,
      "Westmoreland": 4707,
      "devise": 4708,
      "Princess": 4709,
      "degree": 4710,
      "FLORIZEL": 4711,
      "Adieu": 4712,
      "CHAMBERLAIN": 4713,
      "Roderigo": 4714,
      "SHEPHERD": 4715,
      "AENE": 4716,
      "BISH": 4717,
      "ELE": 4718,
      "Ephes": 4719,
      "Horat": 4720,
      "Mur": 4721,
      "Much": 4722,
      "NA": 4723,
      "SIM": 4724,
      "Wr": 4725,
      "bishop": 4726,
      "ians": 4727,
      "rhy": 4728,
      "sink": 4729,
      "twill": 4730,
      "wander": 4731,
      "inv": 4732,
      "isle": 4733,
      "repair": 4734,
      "hall": 4735,
      "lect": 4736,
      "asp": 4737,
      "weeds": 4738,
      "deem": 4739,
      "sold": 4740,
      "rag": 4741,
      "locks": 4742,
      "herald": 4743,
      "ANOR": 4744,
      "shr": 4745,
      "tame": 4746,
      "vessel": 4747,
      "discre": 4748,
      "ump": 4749,
      "ounce": 4750,
      "thinking": 4751,
      "accus": 4752,
      "desc": 4753,
      "ICER": 4754,
      "LAUN": 4755,
      "monument": 4756,
      "wrought": 4757,
      "assad": 4758,
      "bawd": 4759,
      "CELET": 4760,
      "dearly": 4761,
      "compass": 4762,
      "ctions": 4763,
      "pack": 4764,
      "faced": 4765,
      "Although": 4766,
      "following": 4767,
      "lasting": 4768,
      "stead": 4769,
      "Prosper": 4770,
      "barren": 4771,
      "bride": 4772,
      "bridge": 4773,
      "besides": 4774,
      "strain": 4775,
      "belly": 4776,
      "signs": 4777,
      "HERO": 4778,
      "lamb": 4779,
      "infinite": 4780,
      "affections": 4781,
      "Pisanio": 4782,
      "mourn": 4783,
      "stroke": 4784,
      "decay": 4785,
      "Justice": 4786,
      "pieces": 4787,
      "Slender": 4788,
      "Alexandria": 4789,
      "Plantagenet": 4790,
      "Padua": 4791,
      "AENEAS": 4792,
      "BISHOP": 4793,
      "ELEANOR": 4794,
      "Horatio": 4795,
      "SIMP": 4796,
      "LAUNCELET": 4797,
      "CELL": 4798,
      "OC": 4799,
      "Pers": 4800,
      "aul": 4801,
      "bi": 4802,
      "cue": 4803,
      "dess": 4804,
      "dows": 4805,
      "event": 4806,
      "fate": 4807,
      "mood": 4808,
      "pite": 4809,
      "island": 4810,
      "havi": 4811,
      "seest": 4812,
      "beloved": 4813,
      "Through": 4814,
      "deer": 4815,
      "admit": 4816,
      "until": 4817,
      "doctor": 4818,
      "comb": 4819,
      "complain": 4820,
      "perforce": 4821,
      "coz": 4822,
      "coat": 4823,
      "friar": 4824,
      "ANTIO": 4825,
      "market": 4826,
      "SCA": 4827,
      "wholes": 4828,
      "north": 4829,
      "pressed": 4830,
      "prefer": 4831,
      "joint": 4832,
      "oppos": 4833,
      "whither": 4834,
      "kindly": 4835,
      "Robert": 4836,
      "charged": 4837,
      "Remember": 4838,
      "Brook": 4839,
      "LUCIANA": 4840,
      "knit": 4841,
      "knaves": 4842,
      "stol": 4843,
      "strife": 4844,
      "Charm": 4845,
      "contented": 4846,
      "affli": 4847,
      "hateful": 4848,
      "bottom": 4849,
      "blessing": 4850,
      "goddess": 4851,
      "COUNTRY": 4852,
      "groans": 4853,
      "fatal": 4854,
      "elder": 4855,
      "acquainted": 4856,
      "odds": 4857,
      "Coll": 4858,
      "bounty": 4859,
      "Milan": 4860,
      "Malvolio": 4861,
      "Tarquin": 4862,
      "thieves": 4863,
      "clothes": 4864,
      "Windsor": 4865,
      "Lucrece": 4866,
      "Whether": 4867,
      "appetite": 4868,
      "Came": 4869,
      "DEN": 4870,
      "Full": 4871,
      "Host": 4872,
      "LAN": 4873,
      "LON": 4874,
      "Ox": 4875,
      "PAT": 4876,
      "Tamor": 4877,
      "bag": 4878,
      "cli": 4879,
      "dagger": 4880,
      "mom": 4881,
      "pour": 4882,
      "tall": 4883,
      "intell": 4884,
      "hears": 4885,
      "stret": 4886,
      "record": 4887,
      "weather": 4888,
      "raid": 4889,
      "unate": 4890,
      "peers": 4891,
      "confirm": 4892,
      "perish": 4893,
      "Noble": 4894,
      "displeasure": 4895,
      "afraid": 4896,
      "abhor": 4897,
      "bran": 4898,
      "ENET": 4899,
      "ILIUS": 4900,
      "places": 4901,
      "prayer": 4902,
      "trade": 4903,
      "native": 4904,
      "IDES": 4905,
      "pract": 4906,
      "beaut": 4907,
      "MONIDES": 4908,
      "grey": 4909,
      "wants": 4910,
      "mile": 4911,
      "asked": 4912,
      "Having": 4913,
      "creatures": 4914,
      "SIMONIDES": 4915,
      "wounded": 4916,
      "familiar": 4917,
      "conceit": 4918,
      "urio": 4919,
      "solute": 4920,
      "Hubert": 4921,
      "Greek": 4922,
      "rotten": 4923,
      "language": 4924,
      "Saturn": 4925,
      "numbers": 4926,
      "Ariel": 4927,
      "Ephesus": 4928,
      "Murder": 4929,
      "wholesome": 4930,
      "COUNTRYMAN": 4931,
      "Tamora": 4932,
      "moment": 4933,
      "Cer": 4934,
      "Cry": 4935,
      "Cates": 4936,
      "Dun": 4937,
      "Every": 4938,
      "Ladies": 4939,
      "Mess": 4940,
      "Play": 4941,
      "SUR": 4942,
      "Wit": 4943,
      "bours": 4944,
      "cam": 4945,
      "fran": 4946,
      "mill": 4947,
      "paint": 4948,
      "sings": 4949,
      "enes": 4950,
      "reward": 4951,
      "vet": 4952,
      "belong": 4953,
      "forsooth": 4954,
      "lied": 4955,
      "deb": 4956,
      "admir": 4957,
      "adventure": 4958,
      "soci": 4959,
      "raven": 4960,
      "ONSO": 4961,
      "mov": 4962,
      "teous": 4963,
      "ORGE": 4964,
      "ALONSO": 4965,
      "OLD": 4966,
      "proach": 4967,
      "extrem": 4968,
      "cians": 4969,
      "Anon": 4970,
      "check": 4971,
      "begg": 4972,
      "carried": 4973,
      "Arch": 4974,
      "substance": 4975,
      "crowned": 4976,
      "banqu": 4977,
      "beauteous": 4978,
      "spot": 4979,
      "judgment": 4980,
      "defence": 4981,
      "POLY": 4982,
      "instrument": 4983,
      "midnight": 4984,
      "GEORGE": 4985,
      "companion": 4986,
      "WOO": 4987,
      "deceived": 4988,
      "difference": 4989,
      "whisper": 4990,
      "favours": 4991,
      "Banquo": 4992,
      "Phoe": 4993,
      "GAVILLE": 4994,
      "Person": 4995,
      "Charmian": 4996,
      "LONGAVILLE": 4997,
      "Oxford": 4998,
      "Catesby": 4999,
      "Ap": 5000,
      "Aar": 5001,
      "Eno": 5002,
      "Find": 5003,
      "HIP": 5004,
      "OUT": 5005,
      "PIR": 5006,
      "Soft": 5007,
      "Tha": 5008,
      "VIN": 5009,
      "Winches": 5010,
      "alike": 5011,
      "eight": 5012,
      "hun": 5013,
      "lus": 5014,
      "nice": 5015,
      "west": 5016,
      "infect": 5017,
      "attempt": 5018,
      "stat": 5019,
      "stage": 5020,
      "medi": 5021,
      "nobly": 5022,
      "reach": 5023,
      "ldom": 5024,
      "irt": 5025,
      "wears": 5026,
      "aly": 5027,
      "advised": 5028,
      "lying": 5029,
      "willingly": 5030,
      "nephe": 5031,
      "ANLEY": 5032,
      "shun": 5033,
      "combat": 5034,
      "mult": 5035,
      "STANLEY": 5036,
      "boar": 5037,
      "astard": 5038,
      "blunt": 5039,
      "cope": 5040,
      "accept": 5041,
      "fox": 5042,
      "breach": 5043,
      "wolf": 5044,
      "fairer": 5045,
      "marks": 5046,
      "scape": 5047,
      "_Exit_": 5048,
      "Does": 5049,
      "Marina": 5050,
      "CASCA": 5051,
      "privile": 5052,
      "giving": 5053,
      "cloud": 5054,
      "began": 5055,
      "reading": 5056,
      "GOWER": 5057,
      "wronged": 5058,
      "justly": 5059,
      "villains": 5060,
      "creep": 5061,
      "bitious": 5062,
      "IMACH": 5063,
      "calf": 5064,
      "calm": 5065,
      "rumpet": 5066,
      "bella": 5067,
      "mouths": 5068,
      "feeling": 5069,
      "grieve": 5070,
      "stained": 5071,
      "MALCOL": 5072,
      "Hugh": 5073,
      "months": 5074,
      "LYSIMACH": 5075,
      "jealousy": 5076,
      "reckon": 5077,
      "benefit": 5078,
      "weapons": 5079,
      "Diana": 5080,
      "cuckold": 5081,
      "special": 5082,
      "POLYTA": 5083,
      "Aaron": 5084,
      "Enobar": 5085,
      "HIPPOLYTA": 5086,
      "Winchester": 5087,
      "MALCOLM": 5088,
      "LYSIMACHUS": 5089,
      "AB": 5090,
      "BIA": 5091,
      "BION": 5092,
      "Corn": 5093,
      "DELLO": 5094,
      "GREY": 5095,
      "OFF": 5096,
      "Str": 5097,
      "TRIN": 5098,
      "bite": 5099,
      "freed": 5100,
      "gather": 5101,
      "lun": 5102,
      "mong": 5103,
      "phi": 5104,
      "pom": 5105,
      "sins": 5106,
      "tus": 5107,
      "anley": 5108,
      "ored": 5109,
      "ating": 5110,
      "beam": 5111,
      "although": 5112,
      "tired": 5113,
      "ARL": 5114,
      "ALCI": 5115,
      "handker": 5116,
      "abide": 5117,
      "ATES": 5118,
      "wrest": 5119,
      "cheap": 5120,
      "glas": 5121,
      "Hereford": 5122,
      "URTH": 5123,
      "travel": 5124,
      "CONSTA": 5125,
      "ladyship": 5126,
      "afterwards": 5127,
      "slew": 5128,
      "farther": 5129,
      "Stanley": 5130,
      "subtle": 5131,
      "sleeps": 5132,
      "hangs": 5133,
      "hanging": 5134,
      "stronger": 5135,
      "kisses": 5136,
      "penny": 5137,
      "Didst": 5138,
      "devils": 5139,
      "silent": 5140,
      "woeful": 5141,
      "lusty": 5142,
      "books": 5143,
      "CAPTA": 5144,
      "Welsh": 5145,
      "remains": 5146,
      "huge": 5147,
      "FOURTH": 5148,
      "banishment": 5149,
      "Senators": 5150,
      "ignorance": 5151,
      "physic": 5152,
      "Grecian": 5153,
      "wondrous": 5154,
      "assured": 5155,
      "acquaintance": 5156,
      "CULO": 5157,
      "esteem": 5158,
      "purposes": 5159,
      "Trojan": 5160,
      "Chamber": 5161,
      "ARCHBISHOP": 5162,
      "fierce": 5163,
      "banquet": 5164,
      "Enobarbus": 5165,
      "BIADES": 5166,
      "BIONDELLO": 5167,
      "OFFICER": 5168,
      "TRINCULO": 5169,
      "ALCIBIADES": 5170,
      "CONSTABLE": 5171,
      "BORA": 5172,
      "Fall": 5173,
      "Gar": 5174,
      "NES": 5175,
      "OX": 5176,
      "PID": 5177,
      "Res": 5178,
      "Tr": 5179,
      "WALD": 5180,
      "_Gi": 5181,
      "glove": 5182,
      "sine": 5183,
      "swer": 5184,
      "tarry": 5185,
      "ense": 5186,
      "arrest": 5187,
      "height": 5188,
      "nobles": 5189,
      "repe": 5190,
      "rejo": 5191,
      "dece": 5192,
      "oops": 5193,
      "ala": 5194,
      "unfold": 5195,
      "amiss": 5196,
      "tick": 5197,
      "estor": 5198,
      "mag": 5199,
      "mak": 5200,
      "male": 5201,
      "potent": 5202,
      "quench": 5203,
      "bolt": 5204,
      "ELAND": 5205,
      "proportion": 5206,
      "ROCL": 5207,
      "iment": 5208,
      "impossible": 5209,
      "bread": 5210,
      "partly": 5211,
      "serves": 5212,
      "heartily": 5213,
      "undo": 5214,
      "tled": 5215,
      "lief": 5216,
      "shire": 5217,
      "charac": 5218,
      "temple": 5219,
      "ULT": 5220,
      "pleasant": 5221,
      "earthly": 5222,
      "falsehood": 5223,
      "senses": 5224,
      "BOULT": 5225,
      "villainy": 5226,
      "zeal": 5227,
      "AUMER": 5228,
      "Contents": 5229,
      "craft": 5230,
      "drew": 5231,
      "attended": 5232,
      "countrymen": 5233,
      "destroy": 5234,
      "pitch": 5235,
      "OLIVER": 5236,
      "torment": 5237,
      "wrack": 5238,
      "eternal": 5239,
      "odd": 5240,
      "passage": 5241,
      "entertainment": 5242,
      "OSWALD": 5243,
      "MORELAND": 5244,
      "prepared": 5245,
      "Douglas": 5246,
      "dignity": 5247,
      "Pandarus": 5248,
      "milk": 5249,
      "Quickly": 5250,
      "Strike": 5251,
      "WESTMORELAND": 5252,
      "yoke": 5253,
      "QUINCE": 5254,
      "whoreson": 5255,
      "apparel": 5256,
      "PATROCL": 5257,
      "WOOER": 5258,
      "CAPTAIN": 5259,
      "BORACHIO": 5260,
      "NESTOR": 5261,
      "AUMERLE": 5262,
      "PATROCLUS": 5263,
      "Cousin": 5264,
      "CARDIN": 5265,
      "Dram": 5266,
      "Fool": 5267,
      "Ger": 5268,
      "Pu": 5269,
      "Pol": 5270,
      "Send": 5271,
      "_Flourish": 5272,
      "bab": 5273,
      "blast": 5274,
      "hounds": 5275,
      "nation": 5276,
      "pace": 5277,
      "pause": 5278,
      "task": 5279,
      "zo": 5280,
      "inst": 5281,
      "inward": 5282,
      "orch": 5283,
      "envious": 5284,
      "onius": 5285,
      "nobl": 5286,
      "nobility": 5287,
      "begot": 5288,
      "chid": 5289,
      "celet": 5290,
      "hie": 5291,
      "forces": 5292,
      "weal": 5293,
      "also": 5294,
      "rab": 5295,
      "rail": 5296,
      "uncelet": 5297,
      "roses": 5298,
      "urk": 5299,
      "ENCH": 5300,
      "pear": 5301,
      "arts": 5302,
      "poet": 5303,
      "sacri": 5304,
      "knowing": 5305,
      "thereof": 5306,
      "perfection": 5307,
      "ica": 5308,
      "icious": 5309,
      "tres": 5310,
      "trun": 5311,
      "marvel": 5312,
      "friendly": 5313,
      "gently": 5314,
      "scur": 5315,
      "mistake": 5316,
      "betwixt": 5317,
      "assist": 5318,
      "Maria": 5319,
      "tram": 5320,
      "gious": 5321,
      "cler": 5322,
      "Hercul": 5323,
      "Until": 5324,
      "Sebast": 5325,
      "crease": 5326,
      "wishes": 5327,
      "weeps": 5328,
      "hardly": 5329,
      "passing": 5330,
      "Launcelet": 5331,
      "slaves": 5332,
      "harsh": 5333,
      "urious": 5334,
      "basket": 5335,
      "Antipho": 5336,
      "FRENCH": 5337,
      "bleeding": 5338,
      "furnish": 5339,
      "shrewd": 5340,
      "Personæ": 5341,
      "CARDINAL": 5342,
      "Dramatis": 5343,
      "Polonius": 5344,
      "Hercules": 5345,
      "Sebastian": 5346,
      "Aene": 5347,
      "Father": 5348,
      "Gaunt": 5349,
      "Neither": 5350,
      "OUS": 5351,
      "Paul": 5352,
      "bay": 5353,
      "cand": 5354,
      "cool": 5355,
      "dame": 5356,
      "ev": 5357,
      "east": 5358,
      "lain": 5359,
      "oak": 5360,
      "slip": 5361,
      "tles": 5362,
      "ued": 5363,
      "yester": 5364,
      "”?": 5365,
      "inc": 5366,
      "oned": 5367,
      "stab": 5368,
      "sets": 5369,
      "league": 5370,
      "bey": 5371,
      "befall": 5372,
      "behavi": 5373,
      "owne": 5374,
      "wept": 5375,
      "del": 5376,
      "decl": 5377,
      "kets": 5378,
      "unhappy": 5379,
      "unnatural": 5380,
      "roll": 5381,
      "dozen": 5382,
      "loten": 5383,
      "peas": 5384,
      "shout": 5385,
      "STANCE": 5386,
      "appointed": 5387,
      "ulous": 5388,
      "LEPID": 5389,
      "prote": 5390,
      "disease": 5391,
      "spit": 5392,
      "dient": 5393,
      "otherwise": 5394,
      "exper": 5395,
      "exped": 5396,
      "acy": 5397,
      "bray": 5398,
      "ICANUS": 5399,
      "shield": 5400,
      "CONSTANCE": 5401,
      "ISSA": 5402,
      "MARCELL": 5403,
      "park": 5404,
      "played": 5405,
      "cloak": 5406,
      "stays": 5407,
      "faithful": 5408,
      "bank": 5409,
      "strive": 5410,
      "observ": 5411,
      "pense": 5412,
      "Mayor": 5413,
      "contents": 5414,
      "sends": 5415,
      "deserved": 5416,
      "Cominius": 5417,
      "HELICANUS": 5418,
      "essengers": 5419,
      "leness": 5420,
      "skin": 5421,
      "gait": 5422,
      "torch": 5423,
      "Guild": 5424,
      "suspic": 5425,
      "Berowne": 5426,
      "necessity": 5427,
      "vouchsafe": 5428,
      "amaz": 5429,
      "committed": 5430,
      "ITHOUS": 5431,
      "_Within_": 5432,
      "fixed": 5433,
      "circumstance": 5434,
      "Emperor": 5435,
      "tyranny": 5436,
      "NERISSA": 5437,
      "PIRITHOUS": 5438,
      "Antipholus": 5439,
      "Aeneas": 5440,
      "LEPIDUS": 5441,
      "MARCELLUS": 5442,
      "11": 5443,
      "CESTER": 5444,
      "Eros": 5445,
      "GUN": 5446,
      "Hot": 5447,
      "IONE": 5448,
      "Jup": 5449,
      "Lep": 5450,
      "NYM": 5451,
      "Rather": 5452,
      "Syra": 5453,
      "WOR": 5454,
      "WELL": 5455,
      "aled": 5456,
      "avoid": 5457,
      "bru": 5458,
      "crest": 5459,
      "lent": 5460,
      "mate": 5461,
      "nes": 5462,
      "oce": 5463,
      "pil": 5464,
      "pate": 5465,
      "sple": 5466,
      "slay": 5467,
      "ware": 5468,
      "za": 5469,
      "inform": 5470,
      "enius": 5471,
      "aries": 5472,
      "toil": 5473,
      "sting": 5474,
      "stamp": 5475,
      "hail": 5476,
      "haunt": 5477,
      "sex": 5478,
      "bels": 5479,
      "asy": 5480,
      "assa": 5481,
      "deaf": 5482,
      "alle": 5483,
      "ambitious": 5484,
      "idus": 5485,
      "lace": 5486,
      "pocket": 5487,
      "ified": 5488,
      "venom": 5489,
      "perf": 5490,
      "dim": 5491,
      "plent": 5492,
      "ache": 5493,
      "accuse": 5494,
      "Italy": 5495,
      "monarch": 5496,
      "tricks": 5497,
      "sses": 5498,
      "pursu": 5499,
      "gress": 5500,
      "everyone": 5501,
      "slept": 5502,
      "plays": 5503,
      "answered": 5504,
      "higher": 5505,
      "smiling": 5506,
      "visible": 5507,
      "commanded": 5508,
      "coron": 5509,
      "corre": 5510,
      "MENAS": 5511,
      "hairs": 5512,
      "secure": 5513,
      "GUIL": 5514,
      "wedding": 5515,
      "beasts": 5516,
      "ashes": 5517,
      "conquest": 5518,
      "Countess": 5519,
      "troubled": 5520,
      "Better": 5521,
      "HERMIONE": 5522,
      "tailor": 5523,
      "_Reads_": 5524,
      "drums": 5525,
      "Diomed": 5526,
      "THURIO": 5527,
      "Scotland": 5528,
      "journey": 5529,
      "discretion": 5530,
      "OCTA": 5531,
      "Collat": 5532,
      "Archbishop": 5533,
      "freedom": 5534,
      "pomp": 5535,
      "handkerchief": 5536,
      "Jupiter": 5537,
      "Lepidus": 5538,
      "WORCESTER": 5539,
      "!’": 5540,
      "Apo": 5541,
      "Bishop": 5542,
      "Bastard": 5543,
      "Cas": 5544,
      "Duch": 5545,
      "Lor": 5546,
      "Ner": 5547,
      "Part": 5548,
      "Sit": 5549,
      "Touch": 5550,
      "Uly": 5551,
      "Vill": 5552,
      "_I": 5553,
      "bin": 5554,
      "blot": 5555,
      "lines": 5556,
      "nar": 5557,
      "pup": 5558,
      "squ": 5559,
      "zing": 5560,
      "inch": 5561,
      "incen": 5562,
      "ank": 5563,
      "anus": 5564,
      "anti": 5565,
      "thed": 5566,
      "lles": 5567,
      "toy": 5568,
      "remor": 5569,
      "rebell": 5570,
      "hip": 5571,
      "depend": 5572,
      "terror": 5573,
      "soever": 5574,
      "aming": 5575,
      "wills": 5576,
      "geon": 5577,
      "butcher": 5578,
      "INCH": 5579,
      "shown": 5580,
      "conceive": 5581,
      "mul": 5582,
      "qua": 5583,
      "iler": 5584,
      "THA": 5585,
      "spect": 5586,
      "shoulder": 5587,
      "umn": 5588,
      "umer": 5589,
      "Goths": 5590,
      "except": 5591,
      "offices": 5592,
      "design": 5593,
      "fairy": 5594,
      "looking": 5595,
      "wrink": 5596,
      "council": 5597,
      "lieutenant": 5598,
      "achie": 5599,
      "TIT": 5600,
      "fortunate": 5601,
      "trim": 5602,
      "purchase": 5603,
      "Cade": 5604,
      "angels": 5605,
      "showed": 5606,
      "clus": 5607,
      "kindred": 5608,
      "younger": 5609,
      "surely": 5610,
      "enterprise": 5611,
      "visage": 5612,
      "humours": 5613,
      "growing": 5614,
      "Bohe": 5615,
      "Commend": 5616,
      "PETER": 5617,
      "bravely": 5618,
      "nails": 5619,
      "Venus": 5620,
      "tremble": 5621,
      "Among": 5622,
      "possession": 5623,
      "Menenius": 5624,
      "services": 5625,
      "siege": 5626,
      "amorous": 5627,
      "Verona": 5628,
      "Monsieur": 5629,
      "provided": 5630,
      "miserable": 5631,
      "determin": 5632,
      "Prospero": 5633,
      "mediate": 5634,
      "Duchess": 5635,
      "Ulysses": 5636,
      "Cloten": 5637,
      "Dor": 5638,
      "Gall": 5639,
      "Grem": 5640,
      "Grat": 5641,
      "Nap": 5642,
      "Run": 5643,
      "Swear": 5644,
      "Sici": 5645,
      "Tut": 5646,
      "Ur": 5647,
      "VIC": 5648,
      "cise": 5649,
      "gild": 5650,
      "hous": 5651,
      "mount": 5652,
      "nim": 5653,
      "sli": 5654,
      "vul": 5655,
      "yard": 5656,
      "inus": 5657,
      "attain": 5658,
      "straw": 5659,
      "sey": 5660,
      "beheld": 5661,
      "Thers": 5662,
      "liking": 5663,
      "tered": 5664,
      "unity": 5665,
      "unworthy": 5666,
      "roclus": 5667,
      "dote": 5668,
      "load": 5669,
      "ordin": 5670,
      "feat": 5671,
      "peer": 5672,
      "shade": 5673,
      "INTER": 5674,
      "illon": 5675,
      "sions": 5676,
      "conven": 5677,
      "pot": 5678,
      "STERN": 5679,
      "hole": 5680,
      "likely": 5681,
      "proved": 5682,
      "shoulders": 5683,
      "cozen": 5684,
      "LODO": 5685,
      "offers": 5686,
      "imp": 5687,
      "imprison": 5688,
      "timely": 5689,
      "absent": 5690,
      "serpent": 5691,
      "redress": 5692,
      "courtier": 5693,
      "price": 5694,
      "QUO": 5695,
      "braw": 5696,
      "caught": 5697,
      "whipped": 5698,
      "parley": 5699,
      "fares": 5700,
      "Edgar": 5701,
      "duked": 5702,
      "palm": 5703,
      "deserves": 5704,
      "Comes": 5705,
      "leads": 5706,
      "murderer": 5707,
      "written": 5708,
      "obedient": 5709,
      "poral": 5710,
      "BANQUO": 5711,
      "trees": 5712,
      "drive": 5713,
      "resolved": 5714,
      "Tyre": 5715,
      "uries": 5716,
      "addition": 5717,
      "passed": 5718,
      "POET": 5719,
      "advise": 5720,
      "revenged": 5721,
      "turb": 5722,
      "Patroclus": 5723,
      "PUCK": 5724,
      "example": 5725,
      "savage": 5726,
      "tribute": 5727,
      "Else": 5728,
      "DENSTERN": 5729,
      "nephew": 5730,
      "ocean": 5731,
      "GUILDENSTERN": 5732,
      "Casca": 5733,
      "Gremio": 5734,
      "VICO": 5735,
      "Thersites": 5736,
      "LODOVICO": 5737,
      "dukedom": 5738,
      "Bed": 5739,
      "CY": 5740,
      "CAN": 5741,
      "CORD": 5742,
      "Down": 5743,
      "EARL": 5744,
      "FIS": 5745,
      "Field": 5746,
      "Gen": 5747,
      "Gard": 5748,
      "Grum": 5749,
      "Hy": 5750,
      "IOR": 5751,
      "Mow": 5752,
      "MOW": 5753,
      "Open": 5754,
      "Ped": 5755,
      "Sound": 5756,
      "Sic": 5757,
      "aving": 5758,
      "gid": 5759,
      "goose": 5760,
      "scept": 5761,
      "tut": 5762,
      "ym": 5763,
      "increase": 5764,
      "anie": 5765,
      "enzo": 5766,
      "stal": 5767,
      "stub": 5768,
      "recomp": 5769,
      "remove": 5770,
      "choler": 5771,
      "iring": 5772,
      "Thurio": 5773,
      "alarum": 5774,
      "robe": 5775,
      "shadows": 5776,
      "nel": 5777,
      "suits": 5778,
      "shoot": 5779,
      "contain": 5780,
      "commod": 5781,
      "saved": 5782,
      "wore": 5783,
      "tooth": 5784,
      "audience": 5785,
      "distra": 5786,
      "distance": 5787,
      "spy": 5788,
      "spurn": 5789,
      "space": 5790,
      "spread": 5791,
      "coll": 5792,
      "troops": 5793,
      "absolute": 5794,
      "brand": 5795,
      "heavi": 5796,
      "graves": 5797,
      "flat": 5798,
      "feared": 5799,
      "sweetly": 5800,
      "CASTER": 5801,
      "voy": 5802,
      "prevail": 5803,
      "curst": 5804,
      "grim": 5805,
      "running": 5806,
      "petty": 5807,
      "garland": 5808,
      "needful": 5809,
      "joys": 5810,
      "thankful": 5811,
      "breaks": 5812,
      "grew": 5813,
      "PERCY": 5814,
      "sounded": 5815,
      "Poins": 5816,
      "Constable": 5817,
      "delia": 5818,
      "waters": 5819,
      "HERMAN": 5820,
      "gaze": 5821,
      "Cordelia": 5822,
      "athed": 5823,
      "actions": 5824,
      "BURGUN": 5825,
      "grievous": 5826,
      "liberal": 5827,
      "SENIOR": 5828,
      "satisfaction": 5829,
      "drowned": 5830,
      "jewels": 5831,
      "Bertram": 5832,
      "sembl": 5833,
      "BRAY": 5834,
      "_Kne": 5835,
      "fifty": 5836,
      "Return": 5837,
      "Katherine": 5838,
      "daily": 5839,
      "torture": 5840,
      "message": 5841,
      "inherit": 5842,
      "conference": 5843,
      "LANCASTER": 5844,
      "Lorenzo": 5845,
      "THAISA": 5846,
      "umerle": 5847,
      "Naples": 5848,
      "CORDELIA": 5849,
      "FISHERMAN": 5850,
      "Grumio": 5851,
      "Mowbray": 5852,
      "MOWBRAY": 5853,
      "BURGUNDY": 5854,
      "),": 5855,
      "Aumerle": 5856,
      "BL": 5857,
      "Black": 5858,
      "Cost": 5859,
      "Citizens": 5860,
      "EPER": 5861,
      "Fly": 5862,
      "FERD": 5863,
      "Gri": 5864,
      "Jess": 5865,
      "Live": 5866,
      "Making": 5867,
      "Nestor": 5868,
      "Nym": 5869,
      "Over": 5870,
      "Sleep": 5871,
      "apo": 5872,
      "bore": 5873,
      "gage": 5874,
      "hom": 5875,
      "mart": 5876,
      "och": 5877,
      "swo": 5878,
      "vass": 5879,
      "theme": 5880,
      "enstern": 5881,
      "nod": 5882,
      "redeem": 5883,
      "veins": 5884,
      "chin": 5885,
      "aspect": 5886,
      "liqu": 5887,
      "likes": 5888,
      "week": 5889,
      "detest": 5890,
      "whit": 5891,
      "unkind": 5892,
      "urs": 5893,
      "uring": 5894,
      "amity": 5895,
      "feign": 5896,
      "peman": 5897,
      "ARINO": 5898,
      "INAND": 5899,
      "manly": 5900,
      "shines": 5901,
      "compl": 5902,
      "perpet": 5903,
      "perhaps": 5904,
      "Beau": 5905,
      "coast": 5906,
      "exchange": 5907,
      "shift": 5908,
      "yellow": 5909,
      "keeper": 5910,
      "rightly": 5911,
      "KEEPER": 5912,
      "curses": 5913,
      "Regan": 5914,
      "slee": 5915,
      "confusion": 5916,
      "iano": 5917,
      "praises": 5918,
      "pleasing": 5919,
      "steep": 5920,
      "joyful": 5921,
      "Something": 5922,
      "youthful": 5923,
      "spoil": 5924,
      "duff": 5925,
      "forced": 5926,
      "wisely": 5927,
      "interest": 5928,
      "fields": 5929,
      "learning": 5930,
      "guarded": 5931,
      "princess": 5932,
      "resolution": 5933,
      "fleet": 5934,
      "Macduff": 5935,
      "Davy": 5936,
      "Antioch": 5937,
      "SALARINO": 5938,
      "amongst": 5939,
      "breeding": 5940,
      "Greeks": 5941,
      "usurp": 5942,
      "weapon": 5943,
      "government": 5944,
      "consul": 5945,
      "invention": 5946,
      "DOLL": 5947,
      "Rossillon": 5948,
      "merchant": 5949,
      "SURREY": 5950,
      "privilege": 5951,
      "Garter": 5952,
      "Guildenstern": 5953,
      "spleen": 5954,
      "Villain": 5955,
      "remorse": 5956,
      "Bohemia": 5957,
      "Gratiano": 5958,
      "sceptre": 5959,
      "FERDINAND": 5960,
      "Jessica": 5961,
      "pemantus": 5962,
      ":—": 5963,
      "Apemantus": 5964,
      "Bion": 5965,
      "Bassi": 5966,
      "BOTH": 5967,
      "BANTIO": 5968,
      "CUR": 5969,
      "Four": 5970,
      "Ghost": 5971,
      "Ire": 5972,
      "Lend": 5973,
      "Man": 5974,
      "New": 5975,
      "WID": 5976,
      "afe": 5977,
      "bud": 5978,
      "evish": 5979,
      "gers": 5980,
      "ghed": 5981,
      "lin": 5982,
      "lower": 5983,
      "mass": 5984,
      "ope": 5985,
      "ront": 5986,
      "sill": 5987,
      "tar": 5988,
      "ylock": 5989,
      "eril": 5990,
      "ouched": 5991,
      "invisible": 5992,
      "ator": 5993,
      "stit": 5994,
      "rebels": 5995,
      "hallow": 5996,
      "seize": 5997,
      "seldom": 5998,
      "forms": 5999,
      "dea": 6000,
      "dello": 6001,
      "decei": 6002,
      "Andrew": 6003,
      "rack": 6004,
      "dove": 6005,
      "tie": 6006,
      "fever": 6007,
      "peevish": 6008,
      "manhood": 6009,
      "sies": 6010,
      "conver": 6011,
      "poly": 6012,
      "moving": 6013,
      "ORLE": 6014,
      "ctors": 6015,
      "theirs": 6016,
      "seemed": 6017,
      "foreign": 6018,
      "THAS": 6019,
      "CHIR": 6020,
      "angers": 6021,
      "Answer": 6022,
      "parting": 6023,
      "serious": 6024,
      "scru": 6025,
      "PHIN": 6026,
      "fires": 6027,
      "lights": 6028,
      "lightning": 6029,
      "travell": 6030,
      "couldst": 6031,
      "begun": 6032,
      "MARIANA": 6033,
      "whip": 6034,
      "whiles": 6035,
      "Robin": 6036,
      "Reign": 6037,
      "draws": 6038,
      "Lead": 6039,
      "strongly": 6040,
      "Shylock": 6041,
      "commands": 6042,
      "lately": 6043,
      "crying": 6044,
      "corse": 6045,
      "celle": 6046,
      "value": 6047,
      "Mean": 6048,
      "surfeit": 6049,
      "aboard": 6050,
      "pitiful": 6051,
      "towns": 6052,
      "granted": 6053,
      "easily": 6054,
      "burst": 6055,
      "Plain": 6056,
      "instruments": 6057,
      "PAINTER": 6058,
      "continue": 6059,
      "Worthy": 6060,
      "DAUPHIN": 6061,
      "BRABANTIO": 6062,
      "injury": 6063,
      "Steph": 6064,
      "Florence": 6065,
      "saucy": 6066,
      "BALTHAS": 6067,
      "disguised": 6068,
      "imagination": 6069,
      "Goneril": 6070,
      "OUTLAW": 6071,
      "Pucelle": 6072,
      "suspicion": 6073,
      "Apollo": 6074,
      "stubborn": 6075,
      "Biondello": 6076,
      "Bassianus": 6077,
      "Ireland": 6078,
      "WIDOW": 6079,
      "afeard": 6080,
      "ORLEANS": 6081,
      "CHIRON": 6082,
      "BALTHASAR": 6083,
      "BAR": 6084,
      "Camp": 6085,
      "Fer": 6086,
      "Gower": 6087,
      "Hip": 6088,
      "NARD": 6089,
      "OBER": 6090,
      "Ophe": 6091,
      "PPA": 6092,
      "Rat": 6093,
      "Thi": 6094,
      "Twere": 6095,
      "UIS": 6096,
      "VAR": 6097,
      "bere": 6098,
      "cro": 6099,
      "cull": 6100,
      "flame": 6101,
      "hue": 6102,
      "hated": 6103,
      "nought": 6104,
      "olles": 6105,
      "rhe": 6106,
      "rance": 6107,
      "wished": 6108,
      "yes": 6109,
      "erous": 6110,
      "error": 6111,
      "ino": 6112,
      "encon": 6113,
      "ative": 6114,
      "lling": 6115,
      "vels": 6116,
      "beds": 6117,
      "chor": 6118,
      "cel": 6119,
      "hire": 6120,
      "notice": 6121,
      "lix": 6122,
      "lican": 6123,
      "term": 6124,
      "alms": 6125,
      "peep": 6126,
      "share": 6127,
      "poster": 6128,
      "moves": 6129,
      "compe": 6130,
      "blue": 6131,
      "Bel": 6132,
      "discharge": 6133,
      "cox": 6134,
      "LOV": 6135,
      "LOUIS": 6136,
      "swears": 6137,
      "access": 6138,
      "ably": 6139,
      "lting": 6140,
      "RIPPA": 6141,
      "fearing": 6142,
      "tribunes": 6143,
      "warri": 6144,
      "pursue": 6145,
      "grass": 6146,
      "oppress": 6147,
      "compound": 6148,
      "current": 6149,
      "Alencon": 6150,
      "Herald": 6151,
      "mothers": 6152,
      "AGRIPPA": 6153,
      "clean": 6154,
      "OTHSA": 6155,
      "helm": 6156,
      "ville": 6157,
      "kna": 6158,
      "Proceed": 6159,
      "happily": 6160,
      "Seem": 6161,
      "breaking": 6162,
      "strumpet": 6163,
      "wail": 6164,
      "returned": 6165,
      "promis": 6166,
      "Parolles": 6167,
      "beholding": 6168,
      "Athenian": 6169,
      "hostess": 6170,
      "divor": 6171,
      "instruct": 6172,
      "famous": 6173,
      "FRAN": 6174,
      "supply": 6175,
      "officers": 6176,
      "Corioles": 6177,
      "conclusion": 6178,
      "Patience": 6179,
      "persuade": 6180,
      "points": 6181,
      "SOOTHSA": 6182,
      "steps": 6183,
      "accident": 6184,
      "eagle": 6185,
      "preserve": 6186,
      "chastity": 6187,
      "assurance": 6188,
      "rhyme": 6189,
      "stretch": 6190,
      "rumpets": 6191,
      "behaviour": 6192,
      "Garden": 6193,
      "giddy": 6194,
      "aniel": 6195,
      "polyta": 6196,
      "BARNARD": 6197,
      "Hippolyta": 6198,
      "OBERON": 6199,
      "Ophelia": 6200,
      "SOOTHSAYER": 6201,
      "AUS": 6202,
      "Adam": 6203,
      "CER": 6204,
      "CATES": 6205,
      "Der": 6206,
      "Ever": 6207,
      "ILO": 6208,
      "Kill": 6209,
      "LANT": 6210,
      "Mant": 6211,
      "Other": 6212,
      "PLANT": 6213,
      "Right": 6214,
      "VERS": 6215,
      "bul": 6216,
      "clif": 6217,
      "climb": 6218,
      "ec": 6219,
      "groom": 6220,
      "rouse": 6221,
      "ratch": 6222,
      "saint": 6223,
      "sbury": 6224,
      "scope": 6225,
      "inous": 6226,
      "issa": 6227,
      "andal": 6228,
      "heap": 6229,
      "stale": 6230,
      "metal": 6231,
      "reli": 6232,
      "removed": 6233,
      "hap": 6234,
      "haply": 6235,
      "cet": 6236,
      "forty": 6237,
      "uts": 6238,
      "Things": 6239,
      "noted": 6240,
      "livery": 6241,
      "deput": 6242,
      "adle": 6243,
      "advers": 6244,
      "rase": 6245,
      "urge": 6246,
      "shapes": 6247,
      "suf": 6248,
      "ruction": 6249,
      "shook": 6250,
      "contem": 6251,
      "seeks": 6252,
      "ELBO": 6253,
      "telling": 6254,
      "scour": 6255,
      "lesser": 6256,
      "flout": 6257,
      "ppa": 6258,
      "newly": 6259,
      "mightst": 6260,
      "compar": 6261,
      "fallen": 6262,
      "pawn": 6263,
      "irect": 6264,
      "Read": 6265,
      "kills": 6266,
      "throng": 6267,
      "AGENET": 6268,
      "busy": 6269,
      "carri": 6270,
      "praised": 6271,
      "henceforth": 6272,
      "strikes": 6273,
      "observe": 6274,
      "kissing": 6275,
      "delicate": 6276,
      "cription": 6277,
      "burns": 6278,
      "suffici": 6279,
      "drinking": 6280,
      "lossom": 6281,
      "Jailer": 6282,
      "bosoms": 6283,
      "qualities": 6284,
      "cowards": 6285,
      "succeed": 6286,
      "infant": 6287,
      "eldest": 6288,
      "ugly": 6289,
      "effects": 6290,
      "censure": 6291,
      "throats": 6292,
      "GAUNT": 6293,
      "_Dies": 6294,
      "innoc": 6295,
      "conditions": 6296,
      "ambassad": 6297,
      "physician": 6298,
      "Blunt": 6299,
      "Tribunes": 6300,
      "WILLIAMS": 6301,
      "refuse": 6302,
      "Octavia": 6303,
      "hungry": 6304,
      "Phoebe": 6305,
      "beams": 6306,
      "deceit": 6307,
      "trespass": 6308,
      "Nerissa": 6309,
      "houses": 6310,
      "recompense": 6311,
      "Costard": 6312,
      "Ratclif": 6313,
      "CATESBY": 6314,
      "PLANTAGENET": 6315,
      "ELBOW": 6316,
      "Ratcliffe": 6317,
      "Bor": 6318,
      "Daughter": 6319,
      "GILIA": 6320,
      "GHOST": 6321,
      "Grey": 6322,
      "Ten": 6323,
      "Tars": 6324,
      "Vin": 6325,
      "VERN": 6326,
      "WINCH": 6327,
      "_She": 6328,
      "blossom": 6329,
      "couch": 6330,
      "crant": 6331,
      "dst": 6332,
      "i_": 6333,
      "iance": 6334,
      "ized": 6335,
      "mask": 6336,
      "nap": 6337,
      "rings": 6338,
      "zy": 6339,
      "thread": 6340,
      "ero": 6341,
      "incu": 6342,
      "stout": 6343,
      "rear": 6344,
      "haw": 6345,
      "cep": 6346,
      "forswear": 6347,
      "wet": 6348,
      "withdraw": 6349,
      "alack": 6350,
      "soil": 6351,
      "enton": 6352,
      "rapier": 6353,
      "rope": 6354,
      "loso": 6355,
      "amen": 6356,
      "ending": 6357,
      "EROS": 6358,
      "contri": 6359,
      "moan": 6360,
      "box": 6361,
      "works": 6362,
      "worms": 6363,
      "prodig": 6364,
      "tood": 6365,
      "CHANT": 6366,
      "distemper": 6367,
      "offences": 6368,
      "immortal": 6369,
      "breeds": 6370,
      "wot": 6371,
      "kingly": 6372,
      "gnant": 6373,
      "scal": 6374,
      "scatter": 6375,
      "deaths": 6376,
      "headed": 6377,
      "guide": 6378,
      "keeping": 6379,
      "phrase": 6380,
      "placed": 6381,
      "Rosen": 6382,
      "afternoon": 6383,
      "medit": 6384,
      "Stre": 6385,
      "Dead": 6386,
      "barbar": 6387,
      "strangely": 6388,
      "murd": 6389,
      "cape": 6390,
      "commonwealth": 6391,
      "acts": 6392,
      "ancing": 6393,
      "igence": 6394,
      "burnt": 6395,
      "MASTER": 6396,
      "mettle": 6397,
      "defy": 6398,
      "MERCHANT": 6399,
      "supposed": 6400,
      "Lovell": 6401,
      "thirty": 6402,
      "churl": 6403,
      "secrets": 6404,
      "swain": 6405,
      "drunken": 6406,
      "proceeding": 6407,
      "Worcester": 6408,
      "Rosaline": 6409,
      "Senate": 6410,
      "conclude": 6411,
      "mutiny": 6412,
      "preparation": 6413,
      "pinch": 6414,
      "VIRGILIA": 6415,
      "conjure": 6416,
      "condemn": 6417,
      "condemned": 6418,
      "directly": 6419,
      "Katherina": 6420,
      "clamation": 6421,
      "funeral": 6422,
      "Break": 6423,
      "ragged": 6424,
      "philoso": 6425,
      "Chamberlain": 6426,
      "Hotspur": 6427,
      "rebellion": 6428,
      "nimble": 6429,
      "Tarsus": 6430,
      "Vincentio": 6431,
      "VERNON": 6432,
      "WINCHESTER": 6433,
      "crantz": 6434,
      "Rosencrantz": 6435,
      "Agri": 6436,
      "Bri": 6437,
      "Ear": 6438,
      "JESS": 6439,
      "Pir": 6440,
      "Pub": 6441,
      "RIC": 6442,
      "RAT": 6443,
      "Sm": 6444,
      "Son": 6445,
      "Sur": 6446,
      "Tra": 6447,
      "Turk": 6448,
      "UE": 6449,
      "Wid": 6450,
      "boots": 6451,
      "cation": 6452,
      "don": 6453,
      "dine": 6454,
      "date": 6455,
      "hatch": 6456,
      "ict": 6457,
      "imed": 6458,
      "kno": 6459,
      "liness": 6460,
      "oe": 6461,
      "pper": 6462,
      "push": 6463,
      "san": 6464,
      "south": 6465,
      "wart": 6466,
      "thin": 6467,
      "threw": 6468,
      "ination": 6469,
      "oracle": 6470,
      "ency": 6471,
      "arise": 6472,
      "recon": 6473,
      "repose": 6474,
      "reproach": 6475,
      "ital": 6476,
      "level": 6477,
      "liken": 6478,
      "limit": 6479,
      "deck": 6480,
      "devo": 6481,
      "keen": 6482,
      "terrible": 6483,
      "altogether": 6484,
      "rious": 6485,
      "solic": 6486,
      "ently": 6487,
      "pearl": 6488,
      "fac": 6489,
      "suitor": 6490,
      "const": 6491,
      "contract": 6492,
      "working": 6493,
      "canker": 6494,
      "apes": 6495,
      "apace": 6496,
      "appla": 6497,
      "approve": 6498,
      "apparent": 6499,
      "likewise": 6500,
      "perchance": 6501,
      "process": 6502,
      "provide": 6503,
      "Belar": 6504,
      "distress": 6505,
      "exile": 6506,
      "handsome": 6507,
      "honoured": 6508,
      "trench": 6509,
      "troop": 6510,
      "brown": 6511,
      "ICA": 6512,
      "ILOR": 6513,
      "strate": 6514,
      "wrence": 6515,
      "RIVERS": 6516,
      "pport": 6517,
      "reser": 6518,
      "trifle": 6519,
      "brag": 6520,
      "settled": 6521,
      "rights": 6522,
      "curs": 6523,
      "curtain": 6524,
      "beget": 6525,
      "falling": 6526,
      "Hermi": 6527,
      "engthen": 6528,
      "Joan": 6529,
      "closet": 6530,
      "AGUE": 6531,
      "husbands": 6532,
      "doub": 6533,
      "sung": 6534,
      "Polix": 6535,
      "bargain": 6536,
      "Canst": 6537,
      "mbers": 6538,
      "Lawrence": 6539,
      "survey": 6540,
      "weakness": 6541,
      "quarter": 6542,
      "miracle": 6543,
      "Titinius": 6544,
      "stoop": 6545,
      "titles": 6546,
      "possessed": 6547,
      "Pluck": 6548,
      "conceal": 6549,
      "Silence": 6550,
      "axe": 6551,
      "satisfy": 6552,
      "GHT": 6553,
      "schol": 6554,
      "blushing": 6555,
      "Adon": 6556,
      "OSRIC": 6557,
      "grandsire": 6558,
      "amazed": 6559,
      "loyalty": 6560,
      "neglect": 6561,
      "enforced": 6562,
      "Lieutenant": 6563,
      "Denmark": 6564,
      "ceremony": 6565,
      "Octavius": 6566,
      "renowned": 6567,
      "treacherous": 6568,
      "Isabel": 6569,
      "beguile": 6570,
      "comforts": 6571,
      "fantast": 6572,
      "opposite": 6573,
      "intelligence": 6574,
      "Messala": 6575,
      "society": 6576,
      "extremity": 6577,
      "sinews": 6578,
      "Paulina": 6579,
      "semblance": 6580,
      "silly": 6581,
      "VARRO": 6582,
      "Street": 6583,
      "Agrippa": 6584,
      "JESSICA": 6585,
      "Belarius": 6586,
      "Hermione": 6587,
      "Polixenes": 6588,
      "BED": 6589,
      "Cur": 6590,
      "Chor": 6591,
      "Cons": 6592,
      "Fenton": 6593,
      "Jud": 6594,
      "PR": 6595,
      "Pur": 6596,
      "Si": 6597,
      "Sn": 6598,
      "Sup": 6599,
      "Six": 6600,
      "Wom": 6601,
      "_Th": 6602,
      "avar": 6603,
      "bal": 6604,
      "batter": 6605,
      "cardinal": 6606,
      "hare": 6607,
      "iety": 6608,
      "lter": 6609,
      "lorn": 6610,
      "lark": 6611,
      "mation": 6612,
      "ni": 6613,
      "pence": 6614,
      "path": 6615,
      "pull": 6616,
      "uce": 6617,
      "vive": 6618,
      "wak": 6619,
      "waking": 6620,
      "inted": 6621,
      "arti": 6622,
      "hey": 6623,
      "itable": 6624,
      "wil": 6625,
      "beats": 6626,
      "asion": 6627,
      "omit": 6628,
      "lily": 6629,
      "lift": 6630,
      "liament": 6631,
      "weed": 6632,
      "aloud": 6633,
      "rial": 6634,
      "etch": 6635,
      "willow": 6636,
      "endower": 6637,
      "manif": 6638,
      "manage": 6639,
      "rub": 6640,
      "moral": 6641,
      "contend": 6642,
      "conspir": 6643,
      "mud": 6644,
      "Helican": 6645,
      "tage": 6646,
      "sirs": 6647,
      "disci": 6648,
      "discord": 6649,
      "dissem": 6650,
      "split": 6651,
      "coin": 6652,
      "immediate": 6653,
      "angle": 6654,
      "abused": 6655,
      "flu": 6656,
      "counsell": 6657,
      "sweetest": 6658,
      "PHO": 6659,
      "rescue": 6660,
      "TIMER": 6661,
      "preced": 6662,
      "tenor": 6663,
      "giance": 6664,
      "tales": 6665,
      "Almost": 6666,
      "youngest": 6667,
      "medic": 6668,
      "Revenge": 6669,
      "cloth": 6670,
      "stocks": 6671,
      "senseless": 6672,
      "vaunt": 6673,
      "Deliver": 6674,
      "PERDI": 6675,
      "Glendower": 6676,
      "breathing": 6677,
      "careful": 6678,
      "careless": 6679,
      "beside": 6680,
      "Shrew": 6681,
      "sights": 6682,
      "deserving": 6683,
      "sadness": 6684,
      "commons": 6685,
      "yielded": 6686,
      "dowry": 6687,
      "bottle": 6688,
      "sovereignty": 6689,
      "Juno": 6690,
      "wooing": 6691,
      "DION": 6692,
      "dinand": 6693,
      "resolve": 6694,
      "ctive": 6695,
      "wenches": 6696,
      "evils": 6697,
      "MORTIMER": 6698,
      "expectation": 6699,
      "Cressida": 6700,
      "receiv": 6701,
      "lodging": 6702,
      "Isabella": 6703,
      "ligence": 6704,
      "smoke": 6705,
      "couple": 6706,
      "SIMPLE": 6707,
      "piteous": 6708,
      "rejoice": 6709,
      "orchard": 6710,
      "trunk": 6711,
      "Ferdinand": 6712,
      "LOVELL": 6713,
      "Mantua": 6714,
      "Widow": 6715,
      "BEDFORD": 6716,
      "PERDITA": 6717,
      "Beseech": 6718,
      "Cal": 6719,
      "GNI": 6720,
      "Hum": 6721,
      "IGNI": 6722,
      "Jes": 6723,
      "Nep": 6724,
      "Rug": 6725,
      "Saw": 6726,
      "SLY": 6727,
      "Twill": 6728,
      "ah": 6729,
      "fan": 6730,
      "foun": 6731,
      "mish": 6732,
      "pine": 6733,
      "rar": 6734,
      "touched": 6735,
      "uff": 6736,
      "vap": 6737,
      "wre": 6738,
      "wers": 6739,
      "yr": 6740,
      "yon": 6741,
      "endea": 6742,
      "meth": 6743,
      "rebel": 6744,
      "owes": 6745,
      "forsake": 6746,
      "forlorn": 6747,
      "utch": 6748,
      "Thine": 6749,
      "lier": 6750,
      "lions": 6751,
      "river": 6752,
      "roof": 6753,
      "vern": 6754,
      "amond": 6755,
      "amends": 6756,
      "ests": 6757,
      "ckle": 6758,
      "cont": 6759,
      "quity": 6760,
      "sheet": 6761,
      "bove": 6762,
      "ALEX": 6763,
      "appoint": 6764,
      "thereby": 6765,
      "spark": 6766,
      "covery": 6767,
      "coats": 6768,
      "exer": 6769,
      "imit": 6770,
      "imple": 6771,
      "impress": 6772,
      "imped": 6773,
      "afoot": 6774,
      "acles": 6775,
      "Off": 6776,
      "fairies": 6777,
      "sces": 6778,
      "unders": 6779,
      "flint": 6780,
      "mont": 6781,
      "Marian": 6782,
      "baw": 6783,
      "ressed": 6784,
      "longing": 6785,
      "tried": 6786,
      "jot": 6787,
      "dearer": 6788,
      "compare": 6789,
      "natures": 6790,
      "bidding": 6791,
      "carries": 6792,
      "matters": 6793,
      "Seek": 6794,
      "senators": 6795,
      "cutio": 6796,
      "strict": 6797,
      "minster": 6798,
      "REIGNI": 6799,
      "obtain": 6800,
      "Lewis": 6801,
      "craves": 6802,
      "riches": 6803,
      "royalty": 6804,
      "CORIN": 6805,
      "ancest": 6806,
      "doubtful": 6807,
      "Methought": 6808,
      "lads": 6809,
      "pays": 6810,
      "signior": 6811,
      "signify": 6812,
      "fourteen": 6813,
      "quarre": 6814,
      "Jaques": 6815,
      "destruction": 6816,
      "Titan": 6817,
      "suffered": 6818,
      "flattery": 6819,
      "GUE": 6820,
      "filled": 6821,
      "kingdoms": 6822,
      "doublet": 6823,
      "cherish": 6824,
      "crook": 6825,
      "SILVIUS": 6826,
      "marching": 6827,
      "elements": 6828,
      "grandam": 6829,
      "instantly": 6830,
      "changed": 6831,
      "keys": 6832,
      "Westminster": 6833,
      "Alarums": 6834,
      "Mercutio": 6835,
      "Volsces": 6836,
      "WOMAN": 6837,
      "feeble": 6838,
      "roaring": 6839,
      "MONTANO": 6840,
      "MONTAGUE": 6841,
      "guiltless": 6842,
      "swelling": 6843,
      "prosperous": 6844,
      "treachery": 6845,
      "NIGHT": 6846,
      "imperial": 6847,
      "according": 6848,
      "beggars": 6849,
      "babes": 6850,
      "scurvy": 6851,
      "allegiance": 6852,
      "Collatine": 6853,
      "vulgar": 6854,
      "General": 6855,
      "perpetual": 6856,
      "Reignier": 6857,
      "Stephano": 6858,
      "innocence": 6859,
      "Publius": 6860,
      "likeness": 6861,
      "Chorus": 6862,
      "discipl": 6863,
      "Shrewsbury": 6864,
      "Rugby": 6865,
      "REIGNIER": 6866,
      "ABELLA": 6867,
      "Bless": 6868,
      "CENTIO": 6869,
      "Ev": 6870,
      "East": 6871,
      "EBE": 6872,
      "Five": 6873,
      "GLEN": 6874,
      "IMON": 6875,
      "Iras": 6876,
      "LAR": 6877,
      "Lies": 6878,
      "Os": 6879,
      "OUN": 6880,
      "POR": 6881,
      "Sta": 6882,
      "Ta": 6883,
      "YOUN": 6884,
      "_O": 6885,
      "_P": 6886,
      "ali": 6887,
      "bone": 6888,
      "bac": 6889,
      "cook": 6890,
      "cab": 6891,
      "cudge": 6892,
      "dower": 6893,
      "fla": 6894,
      "front": 6895,
      "gap": 6896,
      "hound": 6897,
      "ju": 6898,
      "lat": 6899,
      "os": 6900,
      "ox": 6901,
      "pow": 6902,
      "pac": 6903,
      "plight": 6904,
      "rish": 6905,
      "smother": 6906,
      "tu": 6907,
      "zes": 6908,
      "instance": 6909,
      "isa": 6910,
      "atic": 6911,
      "lla": 6912,
      "stum": 6913,
      "seed": 6914,
      "wipe": 6915,
      "chan": 6916,
      "lim": 6917,
      "riot": 6918,
      "hist": 6919,
      "alliance": 6920,
      "rages": 6921,
      "unjust": 6922,
      "dole": 6923,
      "verty": 6924,
      "lodge": 6925,
      "herd": 6926,
      "shal": 6927,
      "ANIA": 6928,
      "ANIEL": 6929,
      "ARTHUR": 6930,
      "upright": 6931,
      "poverty": 6932,
      "Enough": 6933,
      "teth": 6934,
      "goods": 6935,
      "outs": 6936,
      "asted": 6937,
      "asters": 6938,
      "aph": 6939,
      "agree": 6940,
      "forehead": 6941,
      "THANIEL": 6942,
      "umes": 6943,
      "dious": 6944,
      "explo": 6945,
      "pless": 6946,
      "answers": 6947,
      "broad": 6948,
      "scratch": 6949,
      "scandal": 6950,
      "file": 6951,
      "talking": 6952,
      "ULPH": 6953,
      "subdu": 6954,
      "stole": 6955,
      "sensible": 6956,
      "ranks": 6957,
      "capable": 6958,
      "pipe": 6959,
      "create": 6960,
      "DOWER": 6961,
      "Perchance": 6962,
      "sadly": 6963,
      "sitting": 6964,
      "eaten": 6965,
      "touches": 6966,
      "walks": 6967,
      "requite": 6968,
      "Lucio": 6969,
      "PANDULPH": 6970,
      "suppose": 6971,
      "wonderful": 6972,
      "pitied": 6973,
      "cused": 6974,
      "frail": 6975,
      "Trust": 6976,
      "harbour": 6977,
      "wheel": 6978,
      "stirring": 6979,
      "hideous": 6980,
      "heirs": 6981,
      "bonds": 6982,
      "grieves": 6983,
      "direction": 6984,
      "trembling": 6985,
      "dainty": 6986,
      "Cleon": 6987,
      "altar": 6988,
      "vanqu": 6989,
      "eleven": 6990,
      "Alexander": 6991,
      "Philip": 6992,
      "robb": 6993,
      "varlet": 6994,
      "threaten": 6995,
      "pierce": 6996,
      "virginity": 6997,
      "injuries": 6998,
      "ministers": 6999,
      "miseries": 7000,
      "wager": 7001,
      "Diomedes": 7002,
      "balls": 7003,
      "punishment": 7004,
      "DOLABELLA": 7005,
      "NATHANIEL": 7006,
      "Thaisa": 7007,
      "VINCENTIO": 7008,
      "Cornwall": 7009,
      "Trincu": 7010,
      "clerk": 7011,
      "yesterday": 7012,
      "expedition": 7013,
      "TITANIA": 7014,
      "Sicilia": 7015,
      "CERIMON": 7016,
      "sanct": 7017,
      "constancy": 7018,
      "Adonis": 7019,
      "PHOEBE": 7020,
      "Neptune": 7021,
      "GLENDOWER": 7022,
      "LARTIUS": 7023,
      "PORTER": 7024,
      "YOUNG": 7025,
      "bachel": 7026,
      "Trinculo": 7027,
      "12": 7028,
      ";—": 7029,
      "Ba": 7030,
      "Bull": 7031,
      "Crom": 7032,
      "Die": 7033,
      "Dum": 7034,
      "Fit": 7035,
      "Fetch": 7036,
      "GARDIN": 7037,
      "Mene": 7038,
      "NOX": 7039,
      "Navar": 7040,
      "Sister": 7041,
      "TY": 7042,
      "Twixt": 7043,
      "UG": 7044,
      "VER": 7045,
      "WIS": 7046,
      "_Music": 7047,
      "awe": 7048,
      "bate": 7049,
      "bese": 7050,
      "bounds": 7051,
      "dut": 7052,
      "fts": 7053,
      "frank": 7054,
      "gins": 7055,
      "lves": 7056,
      "mould": 7057,
      "mity": 7058,
      "nigh": 7059,
      "rink": 7060,
      "vation": 7061,
      "inct": 7062,
      "infection": 7063,
      "methought": 7064,
      "semb": 7065,
      "itch": 7066,
      "ing_": 7067,
      "betimes": 7068,
      "myster": 7069,
      "lian": 7070,
      "withstanding": 7071,
      "aloft": 7072,
      "adul": 7073,
      "sober": 7074,
      "rocks": 7075,
      "Thebes": 7076,
      "amour": 7077,
      "tified": 7078,
      "mast": 7079,
      "mantle": 7080,
      "ruled": 7081,
      "ruption": 7082,
      "shores": 7083,
      "converse": 7084,
      "consequ": 7085,
      "polit": 7086,
      "anting": 7087,
      "quaint": 7088,
      "indign": 7089,
      "hose": 7090,
      "blish": 7091,
      "ALICE": 7092,
      "Exit": 7093,
      "tax": 7094,
      "LEWIS": 7095,
      "proph": 7096,
      "disper": 7097,
      "disturb": 7098,
      "coal": 7099,
      "Inn": 7100,
      "diet": 7101,
      "diest": 7102,
      "divide": 7103,
      "division": 7104,
      "cibi": 7105,
      "tran": 7106,
      "abus": 7107,
      "desired": 7108,
      "AMP": 7109,
      "marvell": 7110,
      "ICIAN": 7111,
      "Whereof": 7112,
      "hasty": 7113,
      "courses": 7114,
      "prime": 7115,
      "bait": 7116,
      "bald": 7117,
      "URSU": 7118,
      "preva": 7119,
      "household": 7120,
      "CONRA": 7121,
      "cursions": 7122,
      "Alcibi": 7123,
      "reasonable": 7124,
      "derive": 7125,
      "Receive": 7126,
      "horrible": 7127,
      "Arm": 7128,
      "hedge": 7129,
      "steward": 7130,
      "burial": 7131,
      "hourly": 7132,
      "singing": 7133,
      "Sub": 7134,
      "capti": 7135,
      "wanting": 7136,
      "penit": 7137,
      "slumber": 7138,
      "passes": 7139,
      "silk": 7140,
      "claimed": 7141,
      "Command": 7142,
      "Serving": 7143,
      "summon": 7144,
      "murdered": 7145,
      "writes": 7146,
      "Attendant": 7147,
      "bowels": 7148,
      "safely": 7149,
      "offered": 7150,
      "sufferance": 7151,
      "troubles": 7152,
      "patiently": 7153,
      "nail": 7154,
      "SILENCE": 7155,
      "LENNOX": 7156,
      "Worth": 7157,
      "vanish": 7158,
      "cruelty": 7159,
      "Walter": 7160,
      "breathed": 7161,
      "testi": 7162,
      "frowns": 7163,
      "_Draw": 7164,
      "mourning": 7165,
      "greeting": 7166,
      "necessary": 7167,
      "strokes": 7168,
      "extreme": 7169,
      "pronounce": 7170,
      "Albany": 7171,
      "Honour": 7172,
      "concerns": 7173,
      "merrily": 7174,
      "Witness": 7175,
      "hunger": 7176,
      "character": 7177,
      "sacrifice": 7178,
      "Syracuse": 7179,
      "Dorset": 7180,
      "convenient": 7181,
      "Bedford": 7182,
      "voyage": 7183,
      "vassal": 7184,
      "divorce": 7185,
      "fountain": 7186,
      "GARDINER": 7187,
      "Navarre": 7188,
      "prophesy": 7189,
      "CONRADE": 7190,
      "Alcibiades": 7191,
      "Aud": 7192,
      "Besh": 7193,
      "Cin": 7194,
      "CROM": 7195,
      "DOR": 7196,
      "EC": 7197,
      "Fro": 7198,
      "Fab": 7199,
      "Hie": 7200,
      "Mic": 7201,
      "Ned": 7202,
      "Near": 7203,
      "Oliver": 7204,
      "PLA": 7205,
      "South": 7206,
      "TON": 7207,
      "Toward": 7208,
      "VIII": 7209,
      "Yield": 7210,
      "_Here": 7211,
      "bits": 7212,
      "dancing": 7213,
      "fty": 7214,
      "gorge": 7215,
      "hates": 7216,
      "jou": 7217,
      "mph": 7218,
      "nam": 7219,
      "nard": 7220,
      "nup": 7221,
      "nicious": 7222,
      "pang": 7223,
      "rites": 7224,
      "ssi": 7225,
      "tum": 7226,
      "vast": 7227,
      "wakes": 7228,
      "ering": 7229,
      "insol": 7230,
      "ision": 7231,
      "enmity": 7232,
      "escape": 7233,
      "stuck": 7234,
      "hael": 7235,
      "hamed": 7236,
      "charms": 7237,
      "ashamed": 7238,
      "notes": 7239,
      "notwithstanding": 7240,
      "devour": 7241,
      "terr": 7242,
      "entrance": 7243,
      "etell": 7244,
      "raging": 7245,
      "unseen": 7246,
      "unkindness": 7247,
      "untimely": 7248,
      "amend": 7249,
      "ANMER": 7250,
      "sues": 7251,
      "sustain": 7252,
      "laus": 7253,
      "shining": 7254,
      "conbridge": 7255,
      "moder": 7256,
      "quake": 7257,
      "indiffer": 7258,
      "sails": 7259,
      "ALA": 7260,
      "Excell": 7261,
      "cannon": 7262,
      "agues": 7263,
      "aved": 7264,
      "proclamation": 7265,
      "Belike": 7266,
      "pledge": 7267,
      "Ask": 7268,
      "diseas": 7269,
      "dismal": 7270,
      "vio": 7271,
      "diamond": 7272,
      "extend": 7273,
      "amed": 7274,
      "plan": 7275,
      "cies": 7276,
      "affright": 7277,
      "Any": 7278,
      "desir": 7279,
      "nightly": 7280,
      "heav": 7281,
      "mistrust": 7282,
      "mistook": 7283,
      "retreat": 7284,
      "evermore": 7285,
      "tsy": 7286,
      "madman": 7287,
      "prays": 7288,
      "resem": 7289,
      "resign": 7290,
      "Shepherd": 7291,
      "purge": 7292,
      "purple": 7293,
      "grat": 7294,
      "Cali": 7295,
      "compli": 7296,
      "players": 7297,
      "thren": 7298,
      "lays": 7299,
      "backward": 7300,
      "queath": 7301,
      "stolen": 7302,
      "steed": 7303,
      "evening": 7304,
      "banks": 7305,
      "windows": 7306,
      "soundly": 7307,
      "Leont": 7308,
      "swearing": 7309,
      "Content": 7310,
      "verses": 7311,
      "waves": 7312,
      "promises": 7313,
      "certainly": 7314,
      "MESSALA": 7315,
      "Hadst": 7316,
      "writing": 7317,
      "gallows": 7318,
      "require": 7319,
      "Lucilius": 7320,
      "claims": 7321,
      "gestion": 7322,
      "speeches": 7323,
      "nymph": 7324,
      "mocked": 7325,
      "scorns": 7326,
      "plucked": 7327,
      "severally": 7328,
      "harvest": 7329,
      "bondage": 7330,
      "beastly": 7331,
      "driven": 7332,
      "PEMBROKE": 7333,
      "middle": 7334,
      "execute": 7335,
      "swagger": 7336,
      "governor": 7337,
      "despise": 7338,
      "vanity": 7339,
      "election": 7340,
      "Greece": 7341,
      "Philo": 7342,
      "acknow": 7343,
      "Green": 7344,
      "_Knock": 7345,
      "CRANMER": 7346,
      "Vols": 7347,
      "mountains": 7348,
      "garment": 7349,
      "Princes": 7350,
      "loathsome": 7351,
      "favoured": 7352,
      "guests": 7353,
      "profession": 7354,
      "Accord": 7355,
      "determine": 7356,
      "Albans": 7357,
      "reckoning": 7358,
      "peasant": 7359,
      "narrow": 7360,
      "Beaufort": 7361,
      "sleeve": 7362,
      "scruple": 7363,
      "Belmont": 7364,
      "BARNARDO": 7365,
      "prodigal": 7366,
      "pportunity": 7367,
      "scholar": 7368,
      "Jesu": 7369,
      "Evans": 7370,
      "history": 7371,
      "Cromwell": 7372,
      "Dumaine": 7373,
      "politic": 7374,
      "Beshrew": 7375,
      "CROMWELL": 7376,
      "Fabian": 7377,
      "Michael": 7378,
      "Leontes": 7379,
      "BBO": 7380,
      "Cæ": 7381,
      "CIN": 7382,
      "Eli": 7383,
      "Fif": 7384,
      "FENT": 7385,
      "Har": 7386,
      "Hall": 7387,
      "KNIGHT": 7388,
      "Lar": 7389,
      "Ph": 7390,
      "Rem": 7391,
      "Simple": 7392,
      "SAMP": 7393,
      "Use": 7394,
      "Virt": 7395,
      "aville": 7396,
      "bation": 7397,
      "buke": 7398,
      "ciful": 7399,
      "dat": 7400,
      "dangers": 7401,
      "ffi": 7402,
      "gour": 7403,
      "gru": 7404,
      "imo": 7405,
      "ky": 7406,
      "mire": 7407,
      "miles": 7408,
      "rend": 7409,
      "rated": 7410,
      "sar": 7411,
      "sanc": 7412,
      "tun": 7413,
      "vine": 7414,
      "wreck": 7415,
      "infa": 7416,
      "inte": 7417,
      "infer": 7418,
      "intents": 7419,
      "arro": 7420,
      "tock": 7421,
      "heath": 7422,
      "lewd": 7423,
      "belike": 7424,
      "beware": 7425,
      "fords": 7426,
      "ays": 7427,
      "Throw": 7428,
      "lids": 7429,
      "lihood": 7430,
      "decre": 7431,
      "terbury": 7432,
      "loqu": 7433,
      "heriff": 7434,
      "sugar": 7435,
      "ERICK": 7436,
      "butter": 7437,
      "morous": 7438,
      "gossi": 7439,
      "pox": 7440,
      "outrage": 7441,
      "worser": 7442,
      "Fore": 7443,
      "app": 7444,
      "sayst": 7445,
      "herein": 7446,
      "prologue": 7447,
      "dispose": 7448,
      "dissol": 7449,
      "iction": 7450,
      "vied": 7451,
      "afford": 7452,
      "accursed": 7453,
      "AMUS": 7454,
      "whereon": 7455,
      "serving": 7456,
      "hearse": 7457,
      "Doll": 7458,
      "Dover": 7459,
      "fles": 7460,
      "everlasting": 7461,
      "tainted": 7462,
      "iot": 7463,
      "courteous": 7464,
      "mado": 7465,
      "ANDRA": 7466,
      "holding": 7467,
      "EDERICK": 7468,
      "TIS": 7469,
      "grate": 7470,
      "Cawd": 7471,
      "chased": 7472,
      "curtsy": 7473,
      "everywhere": 7474,
      "charg": 7475,
      "killing": 7476,
      "ULL": 7477,
      "confident": 7478,
      "assion": 7479,
      "surety": 7480,
      "backs": 7481,
      "carriage": 7482,
      "posing": 7483,
      "GOBBO": 7484,
      "subscri": 7485,
      "stops": 7486,
      "Rivers": 7487,
      "powerful": 7488,
      "reply": 7489,
      "villainous": 7490,
      "greed": 7491,
      "worthiness": 7492,
      "Sometime": 7493,
      "hangman": 7494,
      "Conf": 7495,
      "Canterbury": 7496,
      "sickly": 7497,
      "deserts": 7498,
      "persons": 7499,
      "Boyet": 7500,
      "leading": 7501,
      "sisters": 7502,
      "trusty": 7503,
      "Meet": 7504,
      "rises": 7505,
      "yielding": 7506,
      "remembered": 7507,
      "skull": 7508,
      "_Stri": 7509,
      "hinder": 7510,
      "tinct": 7511,
      "relish": 7512,
      "blessings": 7513,
      "destiny": 7514,
      "creation": 7515,
      "PEDANT": 7516,
      "harmony": 7517,
      "Stands": 7518,
      "joints": 7519,
      "softly": 7520,
      "Silvius": 7521,
      "Friend": 7522,
      "starve": 7523,
      "neighbours": 7524,
      "drag": 7525,
      "departure": 7526,
      "Heavens": 7527,
      "FREDERICK": 7528,
      "pestil": 7529,
      "Adv": 7530,
      "icians": 7531,
      "corner": 7532,
      "merely": 7533,
      "hunting": 7534,
      "conqueror": 7535,
      "snatch": 7536,
      "persuaded": 7537,
      "Volumn": 7538,
      "Longaville": 7539,
      "employment": 7540,
      "puiss": 7541,
      "Spir": 7542,
      "perjury": 7543,
      "prophet": 7544,
      "exceeding": 7545,
      "estimation": 7546,
      "control": 7547,
      "Fellow": 7548,
      "painting": 7549,
      "spotted": 7550,
      "candle": 7551,
      "experience": 7552,
      "pilgri": 7553,
      "zabeth": 7554,
      "coronation": 7555,
      "correction": 7556,
      "OCTAVIUS": 7557,
      "Pedro": 7558,
      "Sicinius": 7559,
      "colle": 7560,
      "CURTIS": 7561,
      "rheum": 7562,
      "religious": 7563,
      "barbarous": 7564,
      "Helicanus": 7565,
      "precedent": 7566,
      "medicine": 7567,
      "ancestors": 7568,
      "bachelor": 7569,
      "Menelaus": 7570,
      "beseem": 7571,
      "duties": 7572,
      "Audrey": 7573,
      "nuptial": 7574,
      "According": 7575,
      "CINNA": 7576,
      "Elizabeth": 7577,
      "Fifth": 7578,
      "FENTON": 7579,
      "SAMPSON": 7580,
      "infamy": 7581,
      "Cawdor": 7582,
      "Amb": 7583,
      "Above": 7584,
      "CANT": 7585,
      "CLEON": 7586,
      "Dion": 7587,
      "Free": 7588,
      "Gain": 7589,
      "Kath": 7590,
      "Light": 7591,
      "Mel": 7592,
      "OOL": 7593,
      "Rut": 7594,
      "Sing": 7595,
      "SCH": 7596,
      "Vi": 7597,
      "VEN": 7598,
      "Vouch": 7599,
      "YZ": 7600,
      "Zounds": 7601,
      "cend": 7602,
      "crows": 7603,
      "eats": 7604,
      "ithou": 7605,
      "kis": 7606,
      "lu": 7607,
      "latter": 7608,
      "lute": 7609,
      "mers": 7610,
      "mute": 7611,
      "nun": 7612,
      "nur": 7613,
      "pir": 7614,
      "tard": 7615,
      "tish": 7616,
      "treat": 7617,
      "uish": 7618,
      "udes": 7619,
      "wand": 7620,
      "zon": 7621,
      "’,": 7622,
      "throws": 7623,
      "ana": 7624,
      "anno": 7625,
      "arine": 7626,
      "artic": 7627,
      "rein": 7628,
      "reap": 7629,
      "reproof": 7630,
      "hale": 7631,
      "hack": 7632,
      "chronic": 7633,
      "forman": 7634,
      "utmost": 7635,
      "dep": 7636,
      "defect": 7637,
      "alty": 7638,
      "soe": 7639,
      "ravish": 7640,
      "rogues": 7641,
      "losing": 7642,
      "Thee": 7643,
      "aments": 7644,
      "feeds": 7645,
      "female": 7646,
      "mage": 7647,
      "maker": 7648,
      "shames": 7649,
      "sullen": 7650,
      "ERBURY": 7651,
      "mankind": 7652,
      "ills": 7653,
      "constru": 7654,
      "mote": 7655,
      "quis": 7656,
      "sheets": 7657,
      "bliss": 7658,
      "knowest": 7659,
      "pernicious": 7660,
      "uellen": 7661,
      "Bea": 7662,
      "Beyond": 7663,
      "discontent": 7664,
      "dismiss": 7665,
      "arson": 7666,
      "muster": 7667,
      "divers": 7668,
      "afar": 7669,
      "isement": 7670,
      "brethren": 7671,
      "Angi": 7672,
      "Anjou": 7673,
      "marble": 7674,
      "LAS": 7675,
      "mischance": 7676,
      "monsieur": 7677,
      "counted": 7678,
      "ornament": 7679,
      "glow": 7680,
      "EDY": 7681,
      "presume": 7682,
      "trib": 7683,
      "Proud": 7684,
      "chas": 7685,
      "champ": 7686,
      "restore": 7687,
      "giant": 7688,
      "uded": 7689,
      "charitable": 7690,
      "meddle": 7691,
      "Armado": 7692,
      "Uncle": 7693,
      "entered": 7694,
      "wearing": 7695,
      "nearer": 7696,
      "airs": 7697,
      "caps": 7698,
      "obsc": 7699,
      "DOUG": 7700,
      "appeal": 7701,
      "painter": 7702,
      "strew": 7703,
      "countryman": 7704,
      "deserv": 7705,
      "consort": 7706,
      "chosen": 7707,
      "aws": 7708,
      "crime": 7709,
      "salute": 7710,
      "Fluellen": 7711,
      "MAYOR": 7712,
      "surpr": 7713,
      "ladder": 7714,
      "ANTIGON": 7715,
      "speedy": 7716,
      "False": 7717,
      "stirs": 7718,
      "imag": 7719,
      "Pomfret": 7720,
      "Talk": 7721,
      "woods": 7722,
      "drift": 7723,
      "understanding": 7724,
      "treasons": 7725,
      "mounted": 7726,
      "executed": 7727,
      "delights": 7728,
      "mannerly": 7729,
      "Leonat": 7730,
      "kinsmen": 7731,
      "Phili": 7732,
      "companions": 7733,
      "changes": 7734,
      "legions": 7735,
      "persuasion": 7736,
      "CLIFFE": 7737,
      "winged": 7738,
      "Half": 7739,
      "conjur": 7740,
      "shoes": 7741,
      "Milford": 7742,
      "affected": 7743,
      "cuckoo": 7744,
      "prevented": 7745,
      "tyrann": 7746,
      "pillow": 7747,
      "errand": 7748,
      "Court": 7749,
      "Council": 7750,
      "aloof": 7751,
      "filthy": 7752,
      "franch": 7753,
      "infected": 7754,
      "lungs": 7755,
      "_Giving": 7756,
      "_Item": 7757,
      "gilded": 7758,
      "Thir": 7759,
      "bereft": 7760,
      "deputy": 7761,
      "suffice": 7762,
      "churlish": 7763,
      "Pirithou": 7764,
      "RATCLIFFE": 7765,
      "knocks": 7766,
      "Judas": 7767,
      "Women": 7768,
      "wilful": 7769,
      "DIONYZ": 7770,
      "exercise": 7771,
      "VERG": 7772,
      "URSULA": 7773,
      "PLAYER": 7774,
      "Caliban": 7775,
      "integr": 7776,
      "CANTERBURY": 7777,
      "Katharine": 7778,
      "OOLMASTER": 7779,
      "Rutland": 7780,
      "SCHOOLMASTER": 7781,
      "kissed": 7782,
      "Angiers": 7783,
      "DOUGLAS": 7784,
      "ANTIGONUS": 7785,
      "Pirithous": 7786,
      "DIONYZA": 7787,
      "Apri": 7788,
      "Adri": 7789,
      "Base": 7790,
      "Balth": 7791,
      "Ce": 7792,
      "Car": 7793,
      "Cre": 7794,
      "Cut": 7795,
      "Dar": 7796,
      "EG": 7797,
      "Er": 7798,
      "Ely": 7799,
      "Elean": 7800,
      "Fle": 7801,
      "Fla": 7802,
      "Ful": 7803,
      "GAD": 7804,
      "Hol": 7805,
      "Je": 7806,
      "MUS": 7807,
      "Maine": 7808,
      "NCAN": 7809,
      "Pem": 7810,
      "SAND": 7811,
      "Tear": 7812,
      "Trumpets": 7813,
      "Wol": 7814,
      "Watch": 7815,
      "YS": 7816,
      "_to": 7817,
      "bows": 7818,
      "block": 7819,
      "card": 7820,
      "coff": 7821,
      "flock": 7822,
      "gor": 7823,
      "glo": 7824,
      "harms": 7825,
      "lof": 7826,
      "lance": 7827,
      "mouse": 7828,
      "messengers": 7829,
      "nut": 7830,
      "patter": 7831,
      "rene": 7832,
      "roop": 7833,
      "ually": 7834,
      "”;": 7835,
      "oult": 7836,
      "ouder": 7837,
      "inions": 7838,
      "infirm": 7839,
      "anim": 7840,
      "orter": 7841,
      "isher": 7842,
      "toe": 7843,
      "heinous": 7844,
      "stake": 7845,
      "meed": 7846,
      "nobody": 7847,
      "rees": 7848,
      "revels": 7849,
      "separ": 7850,
      "ingrat": 7851,
      "leaf": 7852,
      "leather": 7853,
      "lected": 7854,
      "beit": 7855,
      "became": 7856,
      "chose": 7857,
      "eder": 7858,
      "forc": 7859,
      "oman": 7860,
      "lict": 7861,
      "web": 7862,
      "ourself": 7863,
      "ridge": 7864,
      "advis": 7865,
      "Whence": 7866,
      "raised": 7867,
      "robes": 7868,
      "urch": 7869,
      "lots": 7870,
      "ested": 7871,
      "ENCON": 7872,
      "neat": 7873,
      "Topas": 7874,
      "print": 7875,
      "ruffi": 7876,
      "constra": 7877,
      "consum": 7878,
      "mocks": 7879,
      "ousins": 7880,
      "holp": 7881,
      "ALENCON": 7882,
      "performed": 7883,
      "ELY": 7884,
      "prover": 7885,
      "procure": 7886,
      "aux": 7887,
      "uments": 7888,
      "coil": 7889,
      "IRAS": 7890,
      "expense": 7891,
      "elbow": 7892,
      "impatience": 7893,
      "sweeter": 7894,
      "ached": 7895,
      "angling": 7896,
      "abund": 7897,
      "abomin": 7898,
      "wolves": 7899,
      "description": 7900,
      "brass": 7901,
      "grain": 7902,
      "gentleness": 7903,
      "emb": 7904,
      "ement": 7905,
      "embra": 7906,
      "Whereto": 7907,
      "fling": 7908,
      "RIER": 7909,
      "oughs": 7910,
      "baby": 7911,
      "resist": 7912,
      "longs": 7913,
      "DUNCAN": 7914,
      "pregnant": 7915,
      "putting": 7916,
      "pursuit": 7917,
      "Thane": 7918,
      "welkin": 7919,
      "minded": 7920,
      "confeder": 7921,
      "sands": 7922,
      "horrid": 7923,
      "stayed": 7924,
      "fellowship": 7925,
      "helps": 7926,
      "prais": 7927,
      "Prove": 7928,
      "built": 7929,
      "grees": 7930,
      "worthiest": 7931,
      "Sometimes": 7932,
      "SHILL": 7933,
      "creant": 7934,
      "penance": 7935,
      "brideg": 7936,
      "growth": 7937,
      "sinane": 7938,
      "cram": 7939,
      "attends": 7940,
      "attendants": 7941,
      "leaden": 7942,
      "Lafew": 7943,
      "crimes": 7944,
      "coloured": 7945,
      "rising": 7946,
      "bells": 7947,
      "drinks": 7948,
      "COX": 7949,
      "relent": 7950,
      "thrift": 7951,
      "velvet": 7952,
      "stool": 7953,
      "Moon": 7954,
      "passions": 7955,
      "counsels": 7956,
      "flattering": 7957,
      "grove": 7958,
      "respects": 7959,
      "GUARD": 7960,
      "divided": 7961,
      "beginning": 7962,
      "cheerful": 7963,
      "swim": 7964,
      "added": 7965,
      "carrying": 7966,
      "Country": 7967,
      "Wife": 7968,
      "BROTHER": 7969,
      "despised": 7970,
      "Guard": 7971,
      "wasted": 7972,
      "Alexas": 7973,
      "mutual": 7974,
      "violence": 7975,
      "dwells": 7976,
      "dealing": 7977,
      "demands": 7978,
      "Musicians": 7979,
      "hills": 7980,
      "complete": 7981,
      "starts": 7982,
      "bending": 7983,
      "shoe": 7984,
      "Brave": 7985,
      "listen": 7986,
      "ceremon": 7987,
      "pronoun": 7988,
      "perjured": 7989,
      "strangers": 7990,
      "provoke": 7991,
      "bootless": 7992,
      "County": 7993,
      "Gonz": 7994,
      "Present": 7995,
      "style": 7996,
      "Write": 7997,
      "invite": 7998,
      "descend": 7999
    },
    "merges": [
      [
        "t",
        "h"
      ],
      [
        "e",
        "r"
      ],
      [
        "o",
        "u"
      ],
      [
        "i",
        "n"
      ],
      [
        "a",
        "n"
      ],
      [
        "th",
        "e"
      ],
      [
        "o",
        "r"
      ],
      [
        "i",
        "s"
      ],
      [
        "e",
        "n"
      ],
      [
        "a",
        "r"
      ],
      [
        "a",
        "t"
      ],
      [
        "o",
        "n"
      ],
      [
        "l",
        "l"
      ],
      [
        "e",
        "s"
      ],
      [
        "an",
        "d"
      ],
      [
        "t",
        "o"
      ],
      [
        "h",
        "e"
      ],
      [
        "s",
        "t"
      ],
      [
        "m",
        "e"
      ],
      [
        "y",
        "ou"
      ],
      [
        "n",
        "o"
      ],
      [
        "o",
        "f"
      ],
      [
        "r",
        "e"
      ],
      [
        "h",
        "a"
      ],
      [
        "s",
        "e"
      ],
      [
        "i",
        "t"
      ],
      [
        "v",
        "e"
      ],
      [
        "in",
        "g"
      ],
      [
        "l",
        "e"
      ],
      [
        "w",
        "i"
      ],
      [
        "b",
        "e"
      ],
      [
        "c",
        "h"
      ],
      [
        "c",
        "e"
      ],
      [
        "a",
        "s"
      ],
      [
        "o",
        "w"
      ],
      [
        "m",
        "y"
      ],
      [
        "e",
        "d"
      ],
      [
        "h",
        "i"
      ],
      [
        "f",
        "or"
      ],
      [
        "n",
        "d"
      ],
      [
        "l",
        "d"
      ],
      [
        "a",
        "y"
      ],
      [
        "er",
        "e"
      ],
      [
        "i",
        "r"
      ],
      [
        "u",
        "t"
      ],
      [
        "T",
        "h"
      ],
      [
        "o",
        "m"
      ],
      [
        "no",
        "t"
      ],
      [
        "g",
        "h"
      ],
      [
        "l",
        "i"
      ],
      [
        "w",
        "e"
      ],
      [
        "d",
        "e"
      ],
      [
        "th",
        "at"
      ],
      [
        "k",
        "e"
      ],
      [
        "o",
        "o"
      ],
      [
        "A",
        "nd"
      ],
      [
        "wi",
        "th"
      ],
      [
        "ou",
        "r"
      ],
      [
        "t",
        "er"
      ],
      [
        "a",
        "l"
      ],
      [
        "u",
        "s"
      ],
      [
        "r",
        "i"
      ],
      [
        "w",
        "h"
      ],
      [
        "a",
        "d"
      ],
      [
        "s",
        "o"
      ],
      [
        "en",
        "t"
      ],
      [
        "W",
        "h"
      ],
      [
        "e",
        "t"
      ],
      [
        "h",
        "is"
      ],
      [
        "you",
        "r"
      ],
      [
        "th",
        "ou"
      ],
      [
        "a",
        "ll"
      ],
      [
        "r",
        "a"
      ],
      [
        "th",
        "er"
      ],
      [
        "u",
        "n"
      ],
      [
        "r",
        "o"
      ],
      [
        "d",
        "o"
      ],
      [
        "gh",
        "t"
      ],
      [
        "u",
        "r"
      ],
      [
        "hi",
        "m"
      ],
      [
        "l",
        "y"
      ],
      [
        "th",
        "is"
      ],
      [
        "ha",
        "ve"
      ],
      [
        "v",
        "er"
      ],
      [
        "l",
        "o"
      ],
      [
        "T",
        "he"
      ],
      [
        "a",
        "m"
      ],
      [
        "t",
        "i"
      ],
      [
        "es",
        "s"
      ],
      [
        "or",
        "d"
      ],
      [
        "ou",
        "ld"
      ],
      [
        "a",
        "in"
      ],
      [
        "f",
        "e"
      ],
      [
        "wi",
        "ll"
      ],
      [
        "i",
        "d"
      ],
      [
        "ar",
        "e"
      ],
      [
        "h",
        "er"
      ],
      [
        "es",
        "t"
      ],
      [
        "E",
        "N"
      ],
      [
        "c",
        "k"
      ],
      [
        "p",
        "e"
      ],
      [
        "m",
        "a"
      ],
      [
        "no",
        "w"
      ],
      [
        "oo",
        "d"
      ],
      [
        "s",
        "ha"
      ],
      [
        "o",
        "me"
      ],
      [
        "n",
        "e"
      ],
      [
        "A",
        "N"
      ],
      [
        "g",
        "e"
      ],
      [
        "th",
        "y"
      ],
      [
        "f",
        "a"
      ],
      [
        "on",
        "e"
      ],
      [
        "s",
        "u"
      ],
      [
        "en",
        "d"
      ],
      [
        "U",
        "S"
      ],
      [
        "E",
        "R"
      ],
      [
        "A",
        "R"
      ],
      [
        "b",
        "ut"
      ],
      [
        "I",
        "N"
      ],
      [
        "m",
        "an"
      ],
      [
        "T",
        "o"
      ],
      [
        "l",
        "a"
      ],
      [
        "ar",
        "t"
      ],
      [
        "ar",
        "d"
      ],
      [
        "p",
        "r"
      ],
      [
        "the",
        "e"
      ],
      [
        "r",
        "u"
      ],
      [
        "s",
        "h"
      ],
      [
        "b",
        "y"
      ],
      [
        "sha",
        "ll"
      ],
      [
        "E",
        "S"
      ],
      [
        "i",
        "ll"
      ],
      [
        "m",
        "or"
      ],
      [
        "Th",
        "at"
      ],
      [
        "s",
        "i"
      ],
      [
        "c",
        "on"
      ],
      [
        "u",
        "p"
      ],
      [
        "g",
        "o"
      ],
      [
        "p",
        "o"
      ],
      [
        "O",
        "N"
      ],
      [
        "m",
        "o"
      ],
      [
        "an",
        "t"
      ],
      [
        "r",
        "om"
      ],
      [
        "c",
        "om"
      ],
      [
        "in",
        "e"
      ],
      [
        "B",
        "ut"
      ],
      [
        "E",
        "n"
      ],
      [
        "se",
        "l"
      ],
      [
        "i",
        "ght"
      ],
      [
        "m",
        "u"
      ],
      [
        "a",
        "k"
      ],
      [
        "t",
        "e"
      ],
      [
        "S",
        "T"
      ],
      [
        "q",
        "u"
      ],
      [
        "i",
        "l"
      ],
      [
        "ou",
        "s"
      ],
      [
        "in",
        "d"
      ],
      [
        "i",
        "on"
      ],
      [
        "Wh",
        "at"
      ],
      [
        "ow",
        "n"
      ],
      [
        "s",
        "he"
      ],
      [
        "b",
        "o"
      ],
      [
        "i",
        "f"
      ],
      [
        "b",
        "le"
      ],
      [
        "O",
        "R"
      ],
      [
        "l",
        "ord"
      ],
      [
        "er",
        "s"
      ],
      [
        "g",
        "ood"
      ],
      [
        "lo",
        "ve"
      ],
      [
        "c",
        "t"
      ],
      [
        "hi",
        "ch"
      ],
      [
        "ou",
        "t"
      ],
      [
        "H",
        "e"
      ],
      [
        "s",
        "a"
      ],
      [
        "h",
        "o"
      ],
      [
        "v",
        "en"
      ],
      [
        "on",
        "g"
      ],
      [
        "w",
        "or"
      ],
      [
        "w",
        "as"
      ],
      [
        "f",
        "rom"
      ],
      [
        "r",
        "y"
      ],
      [
        "wh",
        "at"
      ],
      [
        "a",
        "st"
      ],
      [
        "F",
        "or"
      ],
      [
        "b",
        "l"
      ],
      [
        "mor",
        "e"
      ],
      [
        "k",
        "now"
      ],
      [
        "we",
        "ll"
      ],
      [
        "w",
        "ould"
      ],
      [
        "A",
        "L"
      ],
      [
        "the",
        "m"
      ],
      [
        "E",
        "x"
      ],
      [
        "En",
        "ter"
      ],
      [
        "c",
        "an"
      ],
      [
        "O",
        "L"
      ],
      [
        "i",
        "ve"
      ],
      [
        "a",
        "p"
      ],
      [
        "at",
        "e"
      ],
      [
        "le",
        "t"
      ],
      [
        "the",
        "ir"
      ],
      [
        "c",
        "ome"
      ],
      [
        "sel",
        "f"
      ],
      [
        "se",
        "e"
      ],
      [
        "i",
        "e"
      ],
      [
        "en",
        "ce"
      ],
      [
        "a",
        "g"
      ],
      [
        "the",
        "y"
      ],
      [
        "e",
        "p"
      ],
      [
        "th",
        "ere"
      ],
      [
        "u",
        "l"
      ],
      [
        "a",
        "th"
      ],
      [
        "li",
        "ke"
      ],
      [
        "th",
        "an"
      ],
      [
        "t",
        "a"
      ],
      [
        "_",
        "Ex"
      ],
      [
        "s",
        "ay"
      ],
      [
        "s",
        "ir"
      ],
      [
        "in",
        "k"
      ],
      [
        "the",
        "n"
      ],
      [
        "for",
        "e"
      ],
      [
        "L",
        "E"
      ],
      [
        "I",
        "O"
      ],
      [
        "u",
        "re"
      ],
      [
        "T",
        "H"
      ],
      [
        "p",
        "er"
      ],
      [
        "h",
        "ere"
      ],
      [
        "v",
        "es"
      ],
      [
        "M",
        "y"
      ],
      [
        "Y",
        "ou"
      ],
      [
        "is",
        "h"
      ],
      [
        "N",
        "o"
      ],
      [
        "i",
        "th"
      ],
      [
        "I",
        "f"
      ],
      [
        "a",
        "ve"
      ],
      [
        "W",
        "e"
      ],
      [
        "an",
        "ce"
      ],
      [
        "w",
        "ay"
      ],
      [
        "t",
        "ru"
      ],
      [
        "th",
        "ing"
      ],
      [
        "ha",
        "th"
      ],
      [
        "ou",
        "nd"
      ],
      [
        "E",
        "L"
      ],
      [
        "IN",
        "G"
      ],
      [
        "oo",
        "k"
      ],
      [
        "p",
        "ro"
      ],
      [
        "to",
        "o"
      ],
      [
        "a",
        "u"
      ],
      [
        "s",
        "pe"
      ],
      [
        "u",
        "e"
      ],
      [
        "C",
        "H"
      ],
      [
        "re",
        "at"
      ],
      [
        "B",
        "e"
      ],
      [
        "p",
        "le"
      ],
      [
        "sh",
        "ould"
      ],
      [
        "d",
        "id"
      ],
      [
        "A",
        "s"
      ],
      [
        "m",
        "ay"
      ],
      [
        "R",
        "O"
      ],
      [
        "w",
        "ere"
      ],
      [
        "d",
        "is"
      ],
      [
        "u",
        "m"
      ],
      [
        "ar",
        "s"
      ],
      [
        "ma",
        "ke"
      ],
      [
        "s",
        "p"
      ],
      [
        "r",
        "ow"
      ],
      [
        "I",
        "A"
      ],
      [
        "c",
        "o"
      ],
      [
        "so",
        "me"
      ],
      [
        "up",
        "on"
      ],
      [
        "w",
        "hich"
      ],
      [
        "i",
        "c"
      ],
      [
        "G",
        "o"
      ],
      [
        "mu",
        "st"
      ],
      [
        "m",
        "en"
      ],
      [
        "K",
        "ING"
      ],
      [
        "ver",
        "y"
      ],
      [
        "I",
        "R"
      ],
      [
        "un",
        "t"
      ],
      [
        "it",
        "y"
      ],
      [
        "I",
        "n"
      ],
      [
        "ha",
        "d"
      ],
      [
        "e",
        "y"
      ],
      [
        "ou",
        "n"
      ],
      [
        "v",
        "i"
      ],
      [
        "L",
        "O"
      ],
      [
        "d",
        "i"
      ],
      [
        "I",
        "US"
      ],
      [
        "o",
        "ther"
      ],
      [
        "w",
        "ord"
      ],
      [
        "e",
        "x"
      ],
      [
        "h",
        "and"
      ],
      [
        "he",
        "art"
      ],
      [
        "h",
        "on"
      ],
      [
        "su",
        "ch"
      ],
      [
        "d",
        "ay"
      ],
      [
        "th",
        "ink"
      ],
      [
        "of",
        "f"
      ],
      [
        "o",
        "se"
      ],
      [
        "Th",
        "ou"
      ],
      [
        "e",
        "l"
      ],
      [
        "a",
        "me"
      ],
      [
        "ti",
        "on"
      ],
      [
        "Th",
        "is"
      ],
      [
        "wh",
        "en"
      ],
      [
        "a",
        "ge"
      ],
      [
        "i",
        "m"
      ],
      [
        "ti",
        "me"
      ],
      [
        "y",
        "et"
      ],
      [
        "ag",
        "ain"
      ],
      [
        "H",
        "ow"
      ],
      [
        "p",
        "l"
      ],
      [
        "an",
        "s"
      ],
      [
        "c",
        "i"
      ],
      [
        "S",
        "o"
      ],
      [
        "K",
        "ing"
      ],
      [
        "I",
        "I"
      ],
      [
        "en",
        "e"
      ],
      [
        "a",
        "f"
      ],
      [
        "s",
        "we"
      ],
      [
        "is",
        "e"
      ],
      [
        "ll",
        "ow"
      ],
      [
        "Wh",
        "y"
      ],
      [
        "W",
        "ith"
      ],
      [
        "a",
        "c"
      ],
      [
        "mo",
        "st"
      ],
      [
        "an",
        "g"
      ],
      [
        "n",
        "ess"
      ],
      [
        "spe",
        "ak"
      ],
      [
        "f",
        "o"
      ],
      [
        "b",
        "re"
      ],
      [
        "f",
        "ri"
      ],
      [
        "ur",
        "n"
      ],
      [
        "t",
        "r"
      ],
      [
        "A",
        "n"
      ],
      [
        "an",
        "y"
      ],
      [
        "h",
        "ow"
      ],
      [
        "a",
        "b"
      ],
      [
        "O",
        "f"
      ],
      [
        "m",
        "ine"
      ],
      [
        "w",
        "o"
      ],
      [
        "ta",
        "ke"
      ],
      [
        "the",
        "se"
      ],
      [
        "g",
        "ive"
      ],
      [
        "fa",
        "ther"
      ],
      [
        "AN",
        "T"
      ],
      [
        "d",
        "es"
      ],
      [
        "n",
        "ight"
      ],
      [
        "ad",
        "y"
      ],
      [
        "k",
        "ing"
      ],
      [
        "AR",
        "D"
      ],
      [
        "A",
        "M"
      ],
      [
        "g",
        "reat"
      ],
      [
        "e",
        "ar"
      ],
      [
        "f",
        "ul"
      ],
      [
        "l",
        "and"
      ],
      [
        "fa",
        "ir"
      ],
      [
        "m",
        "ar"
      ],
      [
        "b",
        "r"
      ],
      [
        "wh",
        "ere"
      ],
      [
        "he",
        "a"
      ],
      [
        "g",
        "ra"
      ],
      [
        "I",
        "C"
      ],
      [
        "e",
        "unt"
      ],
      [
        "a",
        "se"
      ],
      [
        "I",
        "t"
      ],
      [
        "te",
        "ll"
      ],
      [
        "fri",
        "end"
      ],
      [
        "p",
        "art"
      ],
      [
        "b",
        "er"
      ],
      [
        "in",
        "ce"
      ],
      [
        "EN",
        "E"
      ],
      [
        "t",
        "y"
      ],
      [
        "g",
        "ent"
      ],
      [
        "Th",
        "ere"
      ],
      [
        "ES",
        "S"
      ],
      [
        "s",
        "er"
      ],
      [
        "or",
        "t"
      ],
      [
        "I",
        "L"
      ],
      [
        "mu",
        "ch"
      ],
      [
        "ar",
        "m"
      ],
      [
        "g",
        "n"
      ],
      [
        "b",
        "ro"
      ],
      [
        "st",
        "r"
      ],
      [
        "L",
        "et"
      ],
      [
        "he",
        "ar"
      ],
      [
        "at",
        "ion"
      ],
      [
        "e",
        "m"
      ],
      [
        "l",
        "ook"
      ],
      [
        "ne",
        "ver"
      ],
      [
        "L",
        "A"
      ],
      [
        "C",
        "ome"
      ],
      [
        "I",
        "s"
      ],
      [
        "a",
        "ce"
      ],
      [
        "re",
        "e"
      ],
      [
        "_Ex",
        "eunt"
      ],
      [
        "s",
        "c"
      ],
      [
        "A",
        "T"
      ],
      [
        "i",
        "es"
      ],
      [
        "_Ex",
        "it"
      ],
      [
        "W",
        "hich"
      ],
      [
        "m",
        "is"
      ],
      [
        "bl",
        "ood"
      ],
      [
        "u",
        "nd"
      ],
      [
        "l",
        "t"
      ],
      [
        "u",
        "ll"
      ],
      [
        "D",
        "o"
      ],
      [
        "it",
        "e"
      ],
      [
        "li",
        "fe"
      ],
      [
        "Wh",
        "ere"
      ],
      [
        "re",
        "d"
      ],
      [
        "u",
        "st"
      ],
      [
        "de",
        "ath"
      ],
      [
        "l",
        "ess"
      ],
      [
        "m",
        "ent"
      ],
      [
        "re",
        "t"
      ],
      [
        "do",
        "th"
      ],
      [
        "U",
        "C"
      ],
      [
        "f",
        "l"
      ],
      [
        "m",
        "on"
      ],
      [
        "hon",
        "our"
      ],
      [
        "S",
        "C"
      ],
      [
        "f",
        "i"
      ],
      [
        "t",
        "le"
      ],
      [
        "s",
        "on"
      ],
      [
        "E",
        "T"
      ],
      [
        "w",
        "r"
      ],
      [
        "Wh",
        "en"
      ],
      [
        "R",
        "I"
      ],
      [
        "w",
        "ard"
      ],
      [
        "be",
        "t"
      ],
      [
        "gent",
        "le"
      ],
      [
        "B",
        "y"
      ],
      [
        "e",
        "ver"
      ],
      [
        "ou",
        "l"
      ],
      [
        "S",
        "ir"
      ],
      [
        "c",
        "oun"
      ],
      [
        "t",
        "ain"
      ],
      [
        "O",
        "r"
      ],
      [
        "st",
        "er"
      ],
      [
        "li",
        "e"
      ],
      [
        "c",
        "es"
      ],
      [
        "m",
        "er"
      ],
      [
        "ha",
        "st"
      ],
      [
        "f",
        "oo"
      ],
      [
        "on",
        "d"
      ],
      [
        "o",
        "ld"
      ],
      [
        "as",
        "s"
      ],
      [
        "t",
        "is"
      ],
      [
        "ou",
        "gh"
      ],
      [
        "A",
        "C"
      ],
      [
        "p",
        "p"
      ],
      [
        "L",
        "ord"
      ],
      [
        "i",
        "o"
      ],
      [
        "N",
        "ow"
      ],
      [
        "se",
        "d"
      ],
      [
        "c",
        "our"
      ],
      [
        "i",
        "ce"
      ],
      [
        "st",
        "and"
      ],
      [
        "Go",
        "d"
      ],
      [
        "c",
        "all"
      ],
      [
        "or",
        "n"
      ],
      [
        "t",
        "end"
      ],
      [
        "a",
        "ch"
      ],
      [
        "t",
        "s"
      ],
      [
        "fe",
        "ar"
      ],
      [
        "F",
        "F"
      ],
      [
        "SC",
        "ENE"
      ],
      [
        "hea",
        "ven"
      ],
      [
        "ma",
        "de"
      ],
      [
        "S",
        "c"
      ],
      [
        "Wh",
        "o"
      ],
      [
        "M",
        "ar"
      ],
      [
        "wh",
        "o"
      ],
      [
        "swe",
        "et"
      ],
      [
        "S",
        "E"
      ],
      [
        "ou",
        "se"
      ],
      [
        "C",
        "A"
      ],
      [
        "tru",
        "e"
      ],
      [
        "ne",
        "w"
      ],
      [
        "ey",
        "es"
      ],
      [
        "c",
        "he"
      ],
      [
        "P",
        "H"
      ],
      [
        "w",
        "om"
      ],
      [
        "m",
        "ad"
      ],
      [
        "AN",
        "D"
      ],
      [
        "ho",
        "ld"
      ],
      [
        "v",
        "ing"
      ],
      [
        "he",
        "ad"
      ],
      [
        "g",
        "l"
      ],
      [
        "F",
        "IR"
      ],
      [
        "can",
        "not"
      ],
      [
        "FIR",
        "ST"
      ],
      [
        "p",
        "la"
      ],
      [
        "p",
        "ri"
      ],
      [
        "n",
        "or"
      ],
      [
        "u",
        "ke"
      ],
      [
        "E",
        "D"
      ],
      [
        "p",
        "t"
      ],
      [
        "H",
        "ere"
      ],
      [
        "r",
        "own"
      ],
      [
        "b",
        "a"
      ],
      [
        "Th",
        "en"
      ],
      [
        "wor",
        "ld"
      ],
      [
        "v",
        "o"
      ],
      [
        "U",
        "R"
      ],
      [
        "pr",
        "ay"
      ],
      [
        "r",
        "es"
      ],
      [
        "le",
        "d"
      ],
      [
        "li",
        "ve"
      ],
      [
        "Sc",
        "ene"
      ],
      [
        "T",
        "I"
      ],
      [
        "a",
        "way"
      ],
      [
        "thou",
        "ght"
      ],
      [
        "be",
        "en"
      ],
      [
        "pr",
        "es"
      ],
      [
        "d",
        "one"
      ],
      [
        "Y",
        "our"
      ],
      [
        "l",
        "ong"
      ],
      [
        "Q",
        "U"
      ],
      [
        "be",
        "ar"
      ],
      [
        "T",
        "is"
      ],
      [
        "n",
        "ame"
      ],
      [
        "for",
        "t"
      ],
      [
        "D",
        "U"
      ],
      [
        "A",
        "y"
      ],
      [
        "F",
        "r"
      ],
      [
        "s",
        "hi"
      ],
      [
        "t",
        "ri"
      ],
      [
        "f",
        "ir"
      ],
      [
        "b",
        "ra"
      ],
      [
        "d",
        "s"
      ],
      [
        "g",
        "u"
      ],
      [
        "t",
        "wo"
      ],
      [
        "com",
        "es"
      ],
      [
        ".",
        "]"
      ],
      [
        "d",
        "own"
      ],
      [
        "p",
        "re"
      ],
      [
        "S",
        "he"
      ],
      [
        "ing",
        "s"
      ],
      [
        "m",
        "ight"
      ],
      [
        "or",
        "e"
      ],
      [
        "ow",
        "er"
      ],
      [
        "a",
        "ke"
      ],
      [
        "li",
        "ght"
      ],
      [
        "a",
        "ble"
      ],
      [
        "t",
        "ra"
      ],
      [
        "s",
        "s"
      ],
      [
        "be",
        "fore"
      ],
      [
        "E",
        "M"
      ],
      [
        "l",
        "es"
      ],
      [
        "bro",
        "ther"
      ],
      [
        "w",
        "ar"
      ],
      [
        "p",
        "ut"
      ],
      [
        "j",
        "o"
      ],
      [
        "se",
        "t"
      ],
      [
        "gh",
        "ter"
      ],
      [
        "d",
        "y"
      ],
      [
        "The",
        "y"
      ],
      [
        "i",
        "gn"
      ],
      [
        "D",
        "uke"
      ],
      [
        "h",
        "ouse"
      ],
      [
        "no",
        "ble"
      ],
      [
        "le",
        "ave"
      ],
      [
        "p",
        "s"
      ],
      [
        "EN",
        "T"
      ],
      [
        "de",
        "ed"
      ],
      [
        "t",
        "on"
      ],
      [
        "at",
        "ter"
      ],
      [
        "t",
        "ed"
      ],
      [
        "e",
        "f"
      ],
      [
        "p",
        "ur"
      ],
      [
        "k",
        "s"
      ],
      [
        "P",
        "r"
      ],
      [
        "H",
        "is"
      ],
      [
        "C",
        "ON"
      ],
      [
        "g",
        "r"
      ],
      [
        "th",
        "us"
      ],
      [
        "l",
        "ady"
      ],
      [
        "OR",
        "D"
      ],
      [
        "t",
        "en"
      ],
      [
        "c",
        "ould"
      ],
      [
        "y",
        "e"
      ],
      [
        "C",
        "E"
      ],
      [
        "foo",
        "l"
      ],
      [
        "C",
        "a"
      ],
      [
        "an",
        "ge"
      ],
      [
        "S",
        "ha"
      ],
      [
        "u",
        "se"
      ],
      [
        "po",
        "or"
      ],
      [
        "re",
        "as"
      ],
      [
        "de",
        "ad"
      ],
      [
        "i",
        "ld"
      ],
      [
        "t",
        "ent"
      ],
      [
        "c",
        "ha"
      ],
      [
        "si",
        "de"
      ],
      [
        "sh",
        "ow"
      ],
      [
        "c",
        "au"
      ],
      [
        "bet",
        "ter"
      ],
      [
        "be",
        "ing"
      ],
      [
        "w",
        "it"
      ],
      [
        "We",
        "ll"
      ],
      [
        "s",
        "oul"
      ],
      [
        "w",
        "er"
      ],
      [
        "f",
        "ind"
      ],
      [
        "ke",
        "ep"
      ],
      [
        "i",
        "ck"
      ],
      [
        "r",
        "est"
      ],
      [
        "ri",
        "ght"
      ],
      [
        "K",
        "E"
      ],
      [
        "l",
        "it"
      ],
      [
        "o",
        "l"
      ],
      [
        "at",
        "ch"
      ],
      [
        "es",
        "e"
      ],
      [
        "f",
        "t"
      ],
      [
        "p",
        "h"
      ],
      [
        "in",
        "to"
      ],
      [
        "st",
        "ill"
      ],
      [
        "g",
        "i"
      ],
      [
        "o",
        "p"
      ],
      [
        "ST",
        "A"
      ],
      [
        "I",
        "S"
      ],
      [
        "de",
        "ar"
      ],
      [
        "bo",
        "th"
      ],
      [
        "com",
        "p"
      ],
      [
        "or",
        "s"
      ],
      [
        "c",
        "ur"
      ],
      [
        "G",
        "ood"
      ],
      [
        "c",
        "l"
      ],
      [
        "und",
        "er"
      ],
      [
        "be",
        "g"
      ],
      [
        "N",
        "or"
      ],
      [
        "ma",
        "ster"
      ],
      [
        "no",
        "thing"
      ],
      [
        "e",
        "very"
      ],
      [
        "f",
        "ull"
      ],
      [
        "man",
        "y"
      ],
      [
        "c",
        "y"
      ],
      [
        "W",
        "ill"
      ],
      [
        "c",
        "tion"
      ],
      [
        "O",
        "F"
      ],
      [
        "M",
        "AR"
      ],
      [
        "un",
        "e"
      ],
      [
        "n",
        "g"
      ],
      [
        "au",
        "ghter"
      ],
      [
        "w",
        "hi"
      ],
      [
        "k",
        "ind"
      ],
      [
        "g",
        "ri"
      ],
      [
        "pla",
        "ce"
      ],
      [
        "cau",
        "se"
      ],
      [
        "B",
        "ER"
      ],
      [
        "R",
        "o"
      ],
      [
        "f",
        "all"
      ],
      [
        "wi",
        "fe"
      ],
      [
        "R",
        "ome"
      ],
      [
        "n",
        "at"
      ],
      [
        "p",
        "ar"
      ],
      [
        "u",
        "ck"
      ],
      [
        "tr",
        "ess"
      ],
      [
        "in",
        "s"
      ],
      [
        "d",
        "ie"
      ],
      [
        "k",
        "es"
      ],
      [
        "p",
        "a"
      ],
      [
        "d",
        "en"
      ],
      [
        "t",
        "al"
      ],
      [
        "t",
        "ong"
      ],
      [
        "fa",
        "ce"
      ],
      [
        "ey",
        "e"
      ],
      [
        "ti",
        "ll"
      ],
      [
        "my",
        "self"
      ],
      [
        "our",
        "s"
      ],
      [
        "A",
        "l"
      ],
      [
        "d",
        "aughter"
      ],
      [
        "v",
        "ant"
      ],
      [
        "RI",
        "CH"
      ],
      [
        "Th",
        "an"
      ],
      [
        "I",
        "AN"
      ],
      [
        "N",
        "ay"
      ],
      [
        "re",
        "ad"
      ],
      [
        "j",
        "e"
      ],
      [
        "wom",
        "an"
      ],
      [
        "reas",
        "on"
      ],
      [
        "R",
        "U"
      ],
      [
        "H",
        "er"
      ],
      [
        "com",
        "m"
      ],
      [
        "ie",
        "ld"
      ],
      [
        "you",
        "ng"
      ],
      [
        "RICH",
        "ARD"
      ],
      [
        "thou",
        "gh"
      ],
      [
        "lit",
        "tle"
      ],
      [
        "th",
        "ose"
      ],
      [
        "it",
        "s"
      ],
      [
        "H",
        "AM"
      ],
      [
        "No",
        "t"
      ],
      [
        "word",
        "s"
      ],
      [
        "fo",
        "llow"
      ],
      [
        "u",
        "d"
      ],
      [
        "S",
        "S"
      ],
      [
        "LE",
        "T"
      ],
      [
        "SE",
        "CON"
      ],
      [
        "fir",
        "st"
      ],
      [
        "SECON",
        "D"
      ],
      [
        "i",
        "re"
      ],
      [
        "en",
        "g"
      ],
      [
        "ou",
        "ght"
      ],
      [
        "IN",
        "E"
      ],
      [
        "R",
        "Y"
      ],
      [
        "b",
        "est"
      ],
      [
        "f",
        "f"
      ],
      [
        "is",
        "on"
      ],
      [
        "E",
        "EN"
      ],
      [
        "B",
        "E"
      ],
      [
        "i",
        "us"
      ],
      [
        "af",
        "ter"
      ],
      [
        "ra",
        "w"
      ],
      [
        "Sha",
        "ll"
      ],
      [
        "J",
        "o"
      ],
      [
        "ch",
        "ar"
      ],
      [
        "te",
        "m"
      ],
      [
        "d",
        "er"
      ],
      [
        "we",
        "l"
      ],
      [
        "i",
        "ther"
      ],
      [
        "v",
        "il"
      ],
      [
        "me",
        "d"
      ],
      [
        "R",
        "e"
      ],
      [
        "k",
        "ill"
      ],
      [
        "b",
        "id"
      ],
      [
        "n",
        "ing"
      ],
      [
        "s",
        "ent"
      ],
      [
        "g",
        "one"
      ],
      [
        "QU",
        "EEN"
      ],
      [
        "bo",
        "y"
      ],
      [
        "B",
        "r"
      ],
      [
        "m",
        "ind"
      ],
      [
        "m",
        "ber"
      ],
      [
        "es",
        "ar"
      ],
      [
        "friend",
        "s"
      ],
      [
        "s",
        "le"
      ],
      [
        "ar",
        "k"
      ],
      [
        "him",
        "self"
      ],
      [
        "STA",
        "FF"
      ],
      [
        "mo",
        "ther"
      ],
      [
        "M",
        "AN"
      ],
      [
        "th",
        "ine"
      ],
      [
        "_",
        "A"
      ],
      [
        "U",
        "L"
      ],
      [
        "Y",
        "et"
      ],
      [
        "v",
        "ir"
      ],
      [
        "be",
        "d"
      ],
      [
        "en",
        "ch"
      ],
      [
        "F",
        "AL"
      ],
      [
        "FAL",
        "STAFF"
      ],
      [
        "W",
        "N"
      ],
[...]
